{
  "0": "\u0000",
  "1": "\u0001",
  "2": "\u0002",
  "3": "\u0003",
  "4": "\u0004",
  "5": "\u0005",
  "6": "\u0006",
  "7": "\u0007",
  "8": "\b",
  "9": "\t",
  "10": "\n",
  "11": "\u000b",
  "12": "\f",
  "13": "\r",
  "14": "\u000e",
  "15": "\u000f",
  "16": "\u0010",
  "17": "\u0011",
  "18": "\u0012",
  "19": "\u0013",
  "20": "\u0014",
  "21": "\u0015",
  "22": "\u0016",
  "23": "\u0017",
  "24": "\u0018",
  "25": "\u0019",
  "26": "\u001a",
  "27": "\u001b",
  "28": "\u001c",
  "29": "\u001d",
  "30": "\u001e",
  "31": "\u001f",
  "32": " ",
  "33": "!",
  "34": "\"",
  "35": "#",
  "36": "$",
  "37": "%",
  "38": "&",
  "39": "'",
  "40": "(",
  "41": ")",
  "42": "*",
  "43": "+",
  "44": ",",
  "45": "-",
  "46": ".",
  "47": "/",
  "48": "0",
  "49": "1",
  "50": "2",
  "51": "3",
  "52": "4",
  "53": "5",
  "54": "6",
  "55": "7",
  "56": "8",
  "57": "9",
  "58": ":",
  "59": ";",
  "60": "<",
  "61": "=",
  "62": ">",
  "63": "?",
  "64": "@",
  "65": "A",
  "66": "B",
  "67": "C",
  "68": "D",
  "69": "E",
  "70": "F",
  "71": "G",
  "72": "H",
  "73": "I",
  "74": "J",
  "75": "K",
  "76": "L",
  "77": "M",
  "78": "N",
  "79": "O",
  "80": "P",
  "81": "Q",
  "82": "R",
  "83": "S",
  "84": "T",
  "85": "U",
  "86": "V",
  "87": "W",
  "88": "X",
  "89": "Y",
  "90": "Z",
  "91": "[",
  "92": "\\",
  "93": "]",
  "94": "^",
  "95": "_",
  "96": "`",
  "97": "a",
  "98": "b",
  "99": "c",
  "100": "d",
  "101": "e",
  "102": "f",
  "103": "g",
  "104": "h",
  "105": "i",
  "106": "j",
  "107": "k",
  "108": "l",
  "109": "m",
  "110": "n",
  "111": "o",
  "112": "p",
  "113": "q",
  "114": "r",
  "115": "s",
  "116": "t",
  "117": "u",
  "118": "v",
  "119": "w",
  "120": "x",
  "121": "y",
  "122": "z",
  "123": "{",
  "124": "|",
  "125": "}",
  "126": "~",
  "127": "",
  "128": "",
  "129": "",
  "130": "",
  "131": "",
  "132": "",
  "133": "",
  "134": "",
  "135": "",
  "136": "",
  "137": "",
  "138": "",
  "139": "",
  "140": "",
  "141": "",
  "142": "",
  "143": "",
  "144": "",
  "145": "",
  "146": "",
  "147": "",
  "148": "",
  "149": "",
  "150": "",
  "151": "",
  "152": "",
  "153": "",
  "154": "",
  "155": "",
  "156": "",
  "157": "",
  "158": "",
  "159": "",
  "160": " ",
  "161": "¡",
  "162": "¢",
  "163": "£",
  "164": "¤",
  "165": "¥",
  "166": "¦",
  "167": "§",
  "168": "¨",
  "169": "©",
  "170": "ª",
  "171": "«",
  "172": "¬",
  "173": "­",
  "174": "®",
  "175": "¯",
  "176": "°",
  "177": "±",
  "178": "²",
  "179": "³",
  "180": "´",
  "181": "µ",
  "182": "¶",
  "183": "·",
  "184": "¸",
  "185": "¹",
  "186": "º",
  "187": "»",
  "188": "¼",
  "189": "½",
  "190": "¾",
  "191": "¿",
  "192": "À",
  "193": "Á",
  "194": "Â",
  "195": "Ã",
  "196": "Ä",
  "197": "Å",
  "198": "Æ",
  "199": "Ç",
  "200": "È",
  "201": "É",
  "202": "Ê",
  "203": "Ë",
  "204": "Ì",
  "205": "Í",
  "206": "Î",
  "207": "Ï",
  "208": "Ð",
  "209": "Ñ",
  "210": "Ò",
  "211": "Ó",
  "212": "Ô",
  "213": "Õ",
  "214": "Ö",
  "215": "×",
  "216": "Ø",
  "217": "Ù",
  "218": "Ú",
  "219": "Û",
  "220": "Ü",
  "221": "Ý",
  "222": "Þ",
  "223": "ß",
  "224": "à",
  "225": "á",
  "226": "â",
  "227": "ã",
  "228": "ä",
  "229": "å",
  "230": "æ",
  "231": "ç",
  "232": "è",
  "233": "é",
  "234": "ê",
  "235": "ë",
  "236": "ì",
  "237": "í",
  "238": "î",
  "239": "ï",
  "240": "ð",
  "241": "ñ",
  "242": "ò",
  "243": "ó",
  "244": "ô",
  "245": "õ",
  "246": "ö",
  "247": "÷",
  "248": "ø",
  "249": "ù",
  "250": "ú",
  "251": "û",
  "252": "ü",
  "253": "ý",
  "254": "þ",
  "255": "ÿ",
  "256": "<|endoftext|>",
  "257": " t",
  "258": " a",
  "259": "he",
  "260": "in",
  "261": "re",
  "262": " the",
  "263": "on",
  "264": "er",
  "265": " s",
  "266": " w",
  "267": "at",
  "268": " o",
  "269": "en",
  "270": " c",
  "271": "it",
  "272": "is",
  "273": "an",
  "274": "or",
  "275": " b",
  "276": "es",
  "277": "ed",
  "278": " f",
  "279": "ing",
  "280": " p",
  "281": "ou",
  "282": " an",
  "283": "al",
  "284": " to",
  "285": "ar",
  "286": " m",
  "287": " in",
  "288": " of",
  "289": " h",
  "290": " d",
  "291": "â",
  "292": "as",
  "293": "ic",
  "294": " and",
  "295": " th",
  "296": "le",
  "297": "om",
  "298": "ion",
  "299": "ll",
  "300": "ent",
  "301": " n",
  "302": " l",
  "303": " re",
  "304": "st",
  "305": "ve",
  "306": " e",
  "307": "ly",
  "308": "ro",
  "309": " be",
  "310": " g",
  "311": "id",
  "312": "ut",
  "313": "ac",
  "314": "ot",
  "315": " T",
  "316": " I",
  "317": " that",
  "318": " on",
  "319": "ay",
  "320": " S",
  "321": " is",
  "322": "et",
  "323": "im",
  "324": "am",
  "325": "ad",
  "326": "ow",
  "327": "se",
  "328": "ig",
  "329": " for",
  "330": "â",
  "331": " A",
  "332": "ver",
  "333": "ur",
  "334": "ct",
  "335": "ld",
  "336": " C",
  "337": " u",
  "338": " st",
  "339": " y",
  "340": " it",
  "341": " he",
  "342": "ir",
  "343": "ation",
  "344": "ith",
  "345": " wh",
  "346": " M",
  "347": "ce",
  "348": "ter",
  "349": "ol",
  "350": " we",
  "351": "il",
  "352": " with",
  "353": " as",
  "354": " B",
  "355": "ch",
  "356": "ill",
  "357": "nd",
  "358": " P",
  "359": " was",
  "360": "ers",
  "361": " you",
  "362": "ke",
  "363": " â",
  "364": " con",
  "365": " de",
  "366": " r",
  "367": "her",
  "368": "if",
  "369": "ate",
  "370": "ag",
  "371": " at",
  "372": " ha",
  "373": " W",
  "374": " se",
  "375": " H",
  "376": "ore",
  "377": " pro",
  "378": "ul",
  "379": "pp",
  "380": "ment",
  "381": "ri",
  "382": " are",
  "383": " D",
  "384": " 1",
  "385": "us",
  "386": "est",
  "387": "ist",
  "388": " com",
  "389": "and",
  "390": " R",
  "391": "op",
  "392": "ain",
  "393": " The",
  "394": " 2",
  "395": "igh",
  "396": "rom",
  "397": " (",
  "398": "ort",
  "399": "od",
  "400": " ne",
  "401": " F",
  "402": "um",
  "403": "un",
  "404": " ex",
  "405": "res",
  "406": "ab",
  "407": "â",
  "408": " not",
  "409": " N",
  "410": " v",
  "411": "ess",
  "412": " have",
  "413": "ity",
  "414": "em",
  "415": "ould",
  "416": " or",
  "417": "th",
  "418": " by",
  "419": "os",
  "420": "ant",
  "421": " G",
  "422": "ive",
  "423": " from",
  "424": " al",
  "425": "el",
  "426": "'s",
  "427": "oc",
  "428": "art",
  "429": " su",
  "430": " L",
  "431": " sh",
  "432": " this",
  "433": "nt",
  "434": "qu",
  "435": "ight",
  "436": "pe",
  "437": "ust",
  "438": " le",
  "439": "ies",
  "440": " E",
  "441": "end",
  "442": " ch",
  "443": " sa",
  "444": "out",
  "445": " ab",
  "446": "The",
  "447": "all",
  "448": "ie",
  "449": "ack",
  "450": "red",
  "451": "00",
  "452": " â",
  "453": " has",
  "454": "ally",
  "455": " J",
  "456": " pl",
  "457": " go",
  "458": "ard",
  "459": "iv",
  "460": " his",
  "461": "ome",
  "462": "ap",
  "463": "ost",
  "464": "gh",
  "465": "ear",
  "466": " O",
  "467": " tr",
  "468": "our",
  "469": "ast",
  "470": " j",
  "471": "ak",
  "472": "ud",
  "473": " do",
  "474": " they",
  "475": " but",
  "476": " wor",
  "477": "rou",
  "478": " can",
  "479": "ge",
  "480": " will",
  "481": " said",
  "482": " whe",
  "483": " U",
  "484": " k",
  "485": "ich",
  "486": " all",
  "487": "ok",
  "488": " \"",
  "489": "ide",
  "490": " who",
  "491": " int",
  "492": "ame",
  "493": "ans",
  "494": "ther",
  "495": "ial",
  "496": " out",
  "497": "ff",
  "498": " their",
  "499": "ong",
  "500": "ect",
  "501": "pl",
  "502": "ice",
  "503": "ure",
  "504": "pt",
  "505": "one",
  "506": " more",
  "507": "age",
  "508": "ions",
  "509": "act",
  "510": "ike",
  "511": " me",
  "512": " up",
  "513": "ous",
  "514": "ine",
  "515": " ad",
  "516": " about",
  "517": "ated",
  "518": "ra",
  "519": "ber",
  "520": " one",
  "521": " were",
  "522": " so",
  "523": " us",
  "524": "ime",
  "525": "og",
  "526": " K",
  "527": "ep",
  "528": "ia",
  "529": " had",
  "530": "are",
  "531": "ub",
  "532": "cc",
  "533": " would",
  "534": " cl",
  "535": " 20",
  "536": " im",
  "537": " which",
  "538": "ind",
  "539": "ue",
  "540": "ake",
  "541": " cont",
  "542": "iz",
  "543": "very",
  "544": " ag",
  "545": " te",
  "546": " off",
  "547": " comp",
  "548": " un",
  "549": " been",
  "550": " St",
  "551": "so",
  "552": " en",
  "553": "per",
  "554": "ign",
  "555": "au",
  "556": " Th",
  "557": "ary",
  "558": "ace",
  "559": " year",
  "560": "ip",
  "561": "ew",
  "562": " like",
  "563": "ere",
  "564": "ven",
  "565": "ook",
  "566": " inc",
  "567": "ays",
  "568": " man",
  "569": " pe",
  "570": "ry",
  "571": "ose",
  "572": " res",
  "573": "able",
  "574": "ite",
  "575": " per",
  "576": "ass",
  "577": "ord",
  "578": " sp",
  "579": "ire",
  "580": " In",
  "581": " other",
  "582": "mer",
  "583": " some",
  "584": "ile",
  "585": "ib",
  "586": "ence",
  "587": "ople",
  "588": " 201",
  "589": "ks",
  "590": "ations",
  "591": " over",
  "592": "ical",
  "593": " there",
  "594": "ress",
  "595": " dis",
  "596": "ult",
  "597": "int",
  "598": " new",
  "599": "own",
  "600": " also",
  "601": " than",
  "602": " ar",
  "603": " bec",
  "604": "ru",
  "605": " them",
  "606": "ance",
  "607": "ount",
  "608": "ough",
  "609": " app",
  "610": "port",
  "611": "ail",
  "612": " part",
  "613": " your",
  "614": " when",
  "615": "ree",
  "616": " what",
  "617": "orm",
  "618": "ond",
  "619": " people",
  "620": "fter",
  "621": " sc",
  "622": " Ch",
  "623": "av",
  "624": "ase",
  "625": " qu",
  "626": " any",
  "627": " just",
  "628": " its",
  "629": " Y",
  "630": "ach",
  "631": " time",
  "632": " It",
  "633": " kn",
  "634": " her",
  "635": " 3",
  "636": "ens",
  "637": "lic",
  "638": " rec",
  "639": "reat",
  "640": " my",
  "641": " get",
  "642": " if",
  "643": " V",
  "644": "ian",
  "645": ".â",
  "646": " into",
  "647": "ound",
  "648": " work",
  "649": " tw",
  "650": "irst",
  "651": "vel",
  "652": "ction",
  "653": " no",
  "654": "du",
  "655": "ings",
  "656": "ory",
  "657": "ick",
  "658": "ors",
  "659": " our",
  "660": "ition",
  "661": "ident",
  "662": "ob",
  "663": " -",
  "664": " pre",
  "665": "ove",
  "666": " play",
  "667": "ang",
  "668": "ink",
  "669": "ause",
  "670": "wn",
  "671": "te",
  "672": "amp",
  "673": "ade",
  "674": "hing",
  "675": "ates",
  "676": "ark",
  "677": " ro",
  "678": " pol",
  "679": " she",
  "680": "vers",
  "681": " co",
  "682": ",â",
  "683": " after",
  "684": "ne",
  "685": " first",
  "686": " could",
  "687": " how",
  "688": " He",
  "689": " 19",
  "690": "ious",
  "691": "nder",
  "692": "ild",
  "693": " acc",
  "694": " him",
  "695": "aw",
  "696": "'t",
  "697": "ons",
  "698": " po",
  "699": " only",
  "700": " fe",
  "701": " att",
  "702": "ict",
  "703": "hed",
  "704": " pr",
  "705": " two",
  "706": "rit",
  "707": "ov",
  "708": "ish",
  "709": " comm",
  "710": "â",
  "711": "form",
  "712": " spe",
  "713": " act",
  "714": "we",
  "715": "erv",
  "716": " bl",
  "717": "ft",
  "718": " bet",
  "719": " dec",
  "720": ".\"",
  "721": "ning",
  "722": " back",
  "723": " most",
  "724": "ces",
  "725": "ood",
  "726": "ck",
  "727": " â",
  "728": " am",
  "729": "oy",
  "730": " did",
  "731": "rough",
  "732": "iff",
  "733": "ater",
  "734": "round",
  "735": " again",
  "736": " 4",
  "737": "ual",
  "738": "day",
  "739": "ise",
  "740": " under",
  "741": " des",
  "742": " want",
  "743": "ull",
  "744": "sel",
  "745": " cons",
  "746": " â",
  "747": "..",
  "748": " because",
  "749": " now",
  "750": "lud",
  "751": "ents",
  "752": " years",
  "753": "man",
  "754": "tern",
  "755": "ublic",
  "756": "ec",
  "757": " need",
  "758": " even",
  "759": " $",
  "760": "iss",
  "761": " inv",
  "762": " know",
  "763": " We",
  "764": " see",
  "765": "ments",
  "766": "ced",
  "767": " add",
  "768": ",\"",
  "769": "ting",
  "770": "old",
  "771": " ind",
  "772": " sec",
  "773": "fore",
  "774": "uch",
  "775": " every",
  "776": "urn",
  "777": " 5",
  "778": " supp",
  "779": " make",
  "780": "pect",
  "781": " Un",
  "782": " em",
  "783": " these",
  "784": "ock",
  "785": "oll",
  "786": " where",
  "787": "ject",
  "788": "In",
  "789": "ational",
  "790": "vern",
  "791": "xt",
  "792": " bu",
  "793": " look",
  "794": "Th",
  "795": " And",
  "796": "oss",
  "797": " don",
  "798": " ev",
  "799": "ump",
  "800": "ating",
  "801": " way",
  "802": " being",
  "803": " rem",
  "804": " right",
  "805": "ily",
  "806": " may",
  "807": "ng",
  "808": "row",
  "809": "lect",
  "810": "iew",
  "811": " then",
  "812": " many",
  "813": " [",
  "814": " diff",
  "815": " def",
  "816": "ason",
  "817": " rel",
  "818": " call",
  "819": " But",
  "820": " Tr",
  "821": "ont",
  "822": "ied",
  "823": "les",
  "824": "ased",
  "825": " includ",
  "826": " think",
  "827": "aking",
  "828": " reg",
  "829": ").",
  "830": "meric",
  "831": " imp",
  "832": " through",
  "833": "ath",
  "834": "ited",
  "835": "rib",
  "836": " sy",
  "837": " should",
  "838": " pres",
  "839": " say",
  "840": "ell",
  "841": " fl",
  "842": "uring",
  "843": " last",
  "844": " those",
  "845": "ower",
  "846": " very",
  "847": "ty",
  "848": "other",
  "849": " much",
  "850": "ities",
  "851": "ific",
  "852": " state",
  "853": " This",
  "854": "ative",
  "855": " show",
  "856": "tle",
  "857": "hen",
  "858": " br",
  "859": "ss",
  "860": "arg",
  "861": " well",
  "862": "oth",
  "863": " ph",
  "864": " Wh",
  "865": " count",
  "866": "als",
  "867": "und",
  "868": " 200",
  "869": " does",
  "870": " down",
  "871": " own",
  "872": "arly",
  "873": " end",
  "874": " ass",
  "875": " bel",
  "876": " use",
  "877": "ics",
  "878": "ange",
  "879": "--",
  "880": "ts",
  "881": " long",
  "882": " Americ",
  "883": "ters",
  "884": "ince",
  "885": " before",
  "886": "omet",
  "887": "gr",
  "888": " mon",
  "889": "ward",
  "890": " govern",
  "891": " start",
  "892": " report",
  "893": "ible",
  "894": " ke",
  "895": "up",
  "896": "ues",
  "897": " New",
  "898": " fin",
  "899": " team",
  "900": "ble",
  "901": " made",
  "902": "ife",
  "903": "olog",
  "904": "ener",
  "905": "),",
  "906": " such",
  "907": "ren",
  "908": "com",
  "909": "oun",
  "910": "erson",
  "911": "ek",
  "912": "ix",
  "913": " sm",
  "914": "â",
  "915": "lp",
  "916": "ility",
  "917": " going",
  "918": "ism",
  "919": "ful",
  "920": " world",
  "921": "ually",
  "922": " stud",
  "923": "ists",
  "924": " good",
  "925": " ac",
  "926": "tain",
  "927": "It",
  "928": " sub",
  "929": " eff",
  "930": " sur",
  "931": " against",
  "932": "its",
  "933": " game",
  "934": " set",
  "935": "ork",
  "936": " 6",
  "937": " gu",
  "938": " point",
  "939": " ent",
  "940": "ys",
  "941": "000",
  "942": "gan",
  "943": "ars",
  "944": "li",
  "945": "stem",
  "946": " prov",
  "947": " still",
  "948": "roup",
  "949": " while",
  "950": "illion",
  "951": " help",
  "952": " lead",
  "953": " min",
  "954": "ween",
  "955": "ef",
  "956": "ax",
  "957": "ank",
  "958": "alk",
  "959": "imes",
  "960": " says",
  "961": " ob",
  "962": "ms",
  "963": "cy",
  "964": " produ",
  "965": " gr",
  "966": " inter",
  "967": " inst",
  "968": " str",
  "969": "cess",
  "970": " sim",
  "971": "io",
  "972": "self",
  "973": " conf",
  "974": " col",
  "975": " take",
  "976": "ures",
  "977": "arch",
  "978": " same",
  "979": " though",
  "980": " between",
  "981": "ollow",
  "982": " offic",
  "983": "ever",
  "984": " cr",
  "985": " differe",
  "986": "ool",
  "987": "uss",
  "988": "ution",
  "989": "land",
  "990": " disc",
  "991": "air",
  "992": " op",
  "993": "ah",
  "994": " ed",
  "995": " high",
  "996": "read",
  "997": " num",
  "998": " law",
  "999": " sign",
  "1000": "way",
  "1001": " government",
  "1002": "gg",
  "1003": " Re",
  "1004": "led",
  "1005": "ner",
  "1006": "hip",
  "1007": "atch",
  "1008": "hes",
  "1009": "ames",
  "1010": "any",
  "1011": " ter",
  "1012": " somet",
  "1013": "cent",
  "1014": "velop",
  "1015": "ted",
  "1016": "We",
  "1017": " ref",
  "1018": " trans",
  "1019": "ten",
  "1020": " ins",
  "1021": " run",
  "1022": " ser",
  "1023": " found",
  "1024": " three",
  "1025": "ives",
  "1026": "ave",
  "1027": " mem",
  "1028": " around",
  "1029": " here",
  "1030": "ather",
  "1031": " med",
  "1032": " real",
  "1033": " used",
  "1034": "ouse",
  "1035": " 10",
  "1036": "ved",
  "1037": " exp",
  "1038": "az",
  "1039": " Ar",
  "1040": "cept",
  "1041": "oot",
  "1042": " system",
  "1043": " You",
  "1044": "ci",
  "1045": " really",
  "1046": " mod",
  "1047": "ving",
  "1048": "con",
  "1049": "cer",
  "1050": " group",
  "1051": " support",
  "1052": " 7",
  "1053": " cour",
  "1054": "ets",
  "1055": "ale",
  "1056": "ins",
  "1057": " ret",
  "1058": " hand",
  "1059": " public",
  "1060": " spec",
  "1061": "pr",
  "1062": " Le",
  "1063": "ying",
  "1064": " great",
  "1065": " car",
  "1066": "ense",
  "1067": " ext",
  "1068": ".[",
  "1069": "ton",
  "1070": "irect",
  "1071": " cur",
  "1072": " fam",
  "1073": " Com",
  "1074": "alth",
  "1075": " happ",
  "1076": " fact",
  "1077": "ph",
  "1078": " exper",
  "1079": " They",
  "1080": " Trump",
  "1081": " fr",
  "1082": " wom",
  "1083": " Is",
  "1084": " cap",
  "1085": " both",
  "1086": " day",
  "1087": " find",
  "1088": " Al",
  "1089": "ular",
  "1090": " read",
  "1091": "ines",
  "1092": "oh",
  "1093": "ices",
  "1094": " det",
  "1095": " lit",
  "1096": " sl",
  "1097": " rep",
  "1098": "uth",
  "1099": "ered",
  "1100": " during",
  "1101": " Sh",
  "1102": " As",
  "1103": " 0",
  "1104": " serv",
  "1105": " month",
  "1106": "min",
  "1107": "the",
  "1108": "ision",
  "1109": " cre",
  "1110": " develop",
  "1111": " big",
  "1112": " 8",
  "1113": " person",
  "1114": "akes",
  "1115": " follow",
  "1116": " Cl",
  "1117": " iss",
  "1118": "ex",
  "1119": " told",
  "1120": " since",
  "1121": "ared",
  "1122": "med",
  "1123": "ically",
  "1124": " week",
  "1125": "ages",
  "1126": "ivers",
  "1127": " war",
  "1128": " few",
  "1129": "orth",
  "1130": "ording",
  "1131": " cent",
  "1132": " leg",
  "1133": "aj",
  "1134": "get",
  "1135": " polit",
  "1136": "ves",
  "1137": "ash",
  "1138": " expl",
  "1139": " lot",
  "1140": "ric",
  "1141": " Se",
  "1142": " belie",
  "1143": " gener",
  "1144": " too",
  "1145": " 9",
  "1146": "der",
  "1147": "ata",
  "1148": "rent",
  "1149": " opp",
  "1150": "Wh",
  "1151": " requ",
  "1152": " contin",
  "1153": " prot",
  "1154": "iet",
  "1155": "bers",
  "1156": "anc",
  "1157": " fil",
  "1158": "ention",
  "1159": "ness",
  "1160": " cle",
  "1161": " resp",
  "1162": " put",
  "1163": "ized",
  "1164": " If",
  "1165": " another",
  "1166": "20",
  "1167": "chool",
  "1168": " inf",
  "1169": " something",
  "1170": " De",
  "1171": " different",
  "1172": " cor",
  "1173": " loc",
  "1174": "ute",
  "1175": " invest",
  "1176": " soc",
  "1177": " power",
  "1178": " che",
  "1179": "uc",
  "1180": " '",
  "1181": " pass",
  "1182": " commun",
  "1183": " life",
  "1184": " Fr",
  "1185": " plan",
  "1186": "ody",
  "1187": " rele",
  "1188": "ience",
  "1189": " head",
  "1190": " things",
  "1191": "ned",
  "1192": " far",
  "1193": " art",
  "1194": " poss",
  "1195": " met",
  "1196": "thing",
  "1197": "ox",
  "1198": "erest",
  "1199": " camp",
  "1200": "ross",
  "1201": "arge",
  "1202": " vot",
  "1203": "ier",
  "1204": "This",
  "1205": "view",
  "1206": " child",
  "1207": "ants",
  "1208": " ask",
  "1209": " .",
  "1210": " might",
  "1211": " each",
  "1212": "ize",
  "1213": "iness",
  "1214": " dep",
  "1215": " never",
  "1216": " next",
  "1217": "ik",
  "1218": "ield",
  "1219": " second",
  "1220": " mark",
  "1221": "tt",
  "1222": " quest",
  "1223": " bus",
  "1224": " adv",
  "1225": " An",
  "1226": " dem",
  "1227": " For",
  "1228": " come",
  "1229": " got",
  "1230": " â",
  "1231": " open",
  "1232": " best",
  "1233": "ient",
  "1234": "ital",
  "1235": " allow",
  "1236": " That",
  "1237": "rat",
  "1238": " seem",
  "1239": " post",
  "1240": "ple",
  "1241": "nce",
  "1242": " feel",
  "1243": " Pro",
  "1244": " US",
  "1245": "ug",
  "1246": " pri",
  "1247": "gram",
  "1248": " percent",
  "1249": "cl",
  "1250": " home",
  "1251": " dist",
  "1252": " direct",
  "1253": "ired",
  "1254": " incre",
  "1255": " contro",
  "1256": " Rep",
  "1257": "son",
  "1258": "orn",
  "1259": "less",
  "1260": "osed",
  "1261": " result",
  "1262": " hard",
  "1263": " care",
  "1264": "ately",
  "1265": " million",
  "1266": "chn",
  "1267": " comple",
  "1268": " place",
  "1269": " without",
  "1270": " inform",
  "1271": " including",
  "1272": " import",
  "1273": " av",
  "1274": "conom",
  "1275": " hum",
  "1276": " ide",
  "1277": " proble",
  "1278": " build",
  "1279": " top",
  "1280": "ama",
  "1281": " number",
  "1282": " country",
  "1283": "gy",
  "1284": "oney",
  "1285": "aim",
  "1286": " Bl",
  "1287": "ret",
  "1288": "ral",
  "1289": "ably",
  "1290": "uro",
  "1291": " stand",
  "1292": " gl",
  "1293": " el",
  "1294": "riend",
  "1295": " four",
  "1296": "ished",
  "1297": "ways",
  "1298": " partic",
  "1299": " better",
  "1300": "co",
  "1301": " tri",
  "1302": "But",
  "1303": " recent",
  "1304": " interest",
  "1305": " mov",
  "1306": " let",
  "1307": "ration",
  "1308": " season",
  "1309": " less",
  "1310": "ead",
  "1311": " turn",
  "1312": " little",
  "1313": " beh",
  "1314": " mil",
  "1315": " appro",
  "1316": "ract",
  "1317": "line",
  "1318": " bro",
  "1319": "ling",
  "1320": "ised",
  "1321": " called",
  "1322": "app",
  "1323": "10",
  "1324": " case",
  "1325": " dr",
  "1326": " Ind",
  "1327": " rest",
  "1328": " left",
  "1329": " pop",
  "1330": " ann",
  "1331": " Z",
  "1332": "ency",
  "1333": "ode",
  "1334": " move",
  "1335": "ina",
  "1336": " attack",
  "1337": " There",
  "1338": " keep",
  "1339": " full",
  "1340": "ering",
  "1341": " didn",
  "1342": "be",
  "1343": " fun",
  "1344": " main",
  "1345": "ajor",
  "1346": "__",
  "1347": " effect",
  "1348": "inal",
  "1349": "me",
  "1350": "leg",
  "1351": " prev",
  "1352": " program",
  "1353": " using",
  "1354": " test",
  "1355": " pay",
  "1356": "to",
  "1357": "ature",
  "1358": " ear",
  "1359": " val",
  "1360": " police",
  "1361": " writ",
  "1362": " form",
  "1363": " econom",
  "1364": " data",
  "1365": " news",
  "1366": " pos",
  "1367": " win",
  "1368": " American",
  "1369": " level",
  "1370": " sit",
  "1371": " char",
  "1372": "ains",
  "1373": "iving",
  "1374": "uck",
  "1375": " small",
  "1376": "ined",
  "1377": "ready",
  "1378": "He",
  "1379": " school",
  "1380": " list",
  "1381": "ology",
  "1382": "rap",
  "1383": "mit",
  "1384": "ided",
  "1385": "ploy",
  "1386": "'re",
  "1387": "ger",
  "1388": " eas",
  "1389": " process",
  "1390": "ird",
  "1391": " change",
  "1392": " women",
  "1393": " current",
  "1394": " rece",
  "1395": " prom",
  "1396": " hist",
  "1397": " dri",
  "1398": " =",
  "1399": "ians",
  "1400": "reen",
  "1401": " president",
  "1402": " company",
  "1403": " So",
  "1404": "used",
  "1405": " mat",
  "1406": "ruct",
  "1407": " already",
  "1408": "ohn",
  "1409": " United",
  "1410": "wit",
  "1411": " ty",
  "1412": " why",
  "1413": " bre",
  "1414": " unt",
  "1415": " money",
  "1416": " sol",
  "1417": " always",
  "1418": " later",
  "1419": " expect",
  "1420": " techn",
  "1421": " business",
  "1422": " How",
  "1423": " official",
  "1424": "ron",
  "1425": " Q",
  "1426": " Ob",
  "1427": "stand",
  "1428": "iversity",
  "1429": " bo",
  "1430": " book",
  "1431": " Ph",
  "1432": "aign",
  "1433": " thing",
  "1434": " class",
  "1435": " project",
  "1436": "ases",
  "1437": " claim",
  "1438": " job",
  "1439": " information",
  "1440": " organ",
  "1441": "aff",
  "1442": " She",
  "1443": "ards",
  "1444": " talk",
  "1445": " Be",
  "1446": " design",
  "1447": " story",
  "1448": " chang",
  "1449": " major",
  "1450": " able",
  "1451": " prof",
  "1452": " --",
  "1453": "...",
  "1454": "lection",
  "1455": "iven",
  "1456": "ertain",
  "1457": " rese",
  "1458": " health",
  "1459": " vis",
  "1460": " past",
  "1461": "urs",
  "1462": " free",
  "1463": "here",
  "1464": "outh",
  "1465": " Ad",
  "1466": " oper",
  "1467": "ption",
  "1468": " away",
  "1469": "ior",
  "1470": " Can",
  "1471": " must",
  "1472": " city",
  "1473": "ample",
  "1474": "rist",
  "1475": "sc",
  "1476": "ural",
  "1477": " happen",
  "1478": "uthor",
  "1479": " 18",
  "1480": " important",
  "1481": "acy",
  "1482": "urity",
  "1483": " kill",
  "1484": " sk",
  "1485": " est",
  "1486": "ured",
  "1487": " old",
  "1488": " pat",
  "1489": "ury",
  "1490": "ending",
  "1491": " doesn",
  "1492": "ission",
  "1493": " least",
  "1494": " grow",
  "1495": " edit",
  "1496": " var",
  "1497": "ained",
  "1498": "St",
  "1499": " cost",
  "1500": " Go",
  "1501": "ney",
  "1502": "ider",
  "1503": "ides",
  "1504": "els",
  "1505": " days",
  "1506": " tell",
  "1507": " hop",
  "1508": " stre",
  "1509": " campaign",
  "1510": "side",
  "1511": " 12",
  "1512": " men",
  "1513": " came",
  "1514": " aff",
  "1515": " const",
  "1516": "resident",
  "1517": " enough",
  "1518": " view",
  "1519": "ccess",
  "1520": " kind",
  "1521": " Mar",
  "1522": "oad",
  "1523": " Sp",
  "1524": "ern",
  "1525": " making",
  "1526": " large",
  "1527": " record",
  "1528": "50",
  "1529": "ush",
  "1530": " friend",
  "1531": " mar",
  "1532": " family",
  "1533": "â¦",
  "1534": "ley",
  "1535": " elect",
  "1536": "eral",
  "1537": " polic",
  "1538": " tax",
  "1539": "ising",
  "1540": "by",
  "1541": "pped",
  "1542": "ality",
  "1543": "ator",
  "1544": "ified",
  "1545": "As",
  "1546": "ived",
  "1547": "arent",
  "1548": "ror",
  "1549": " until",
  "1550": "ional",
  "1551": " political",
  "1552": " vide",
  "1553": " deal",
  "1554": "ee",
  "1555": "ries",
  "1556": "alf",
  "1557": "augh",
  "1558": " ve",
  "1559": " working",
  "1560": "ued",
  "1561": " Republic",
  "1562": " took",
  "1563": " deb",
  "1564": "bs",
  "1565": "If",
  "1566": "ister",
  "1567": " line",
  "1568": " John",
  "1569": "aining",
  "1570": " air",
  "1571": "----",
  "1572": " es",
  "1573": " intern",
  "1574": " fore",
  "1575": "iol",
  "1576": "ane",
  "1577": "ocrat",
  "1578": " become",
  "1579": " actually",
  "1580": "aps",
  "1581": "ony",
  "1582": " mean",
  "1583": "work",
  "1584": " fund",
  "1585": " Sc",
  "1586": "ware",
  "1587": "19",
  "1588": "ember",
  "1589": " Pl",
  "1590": " former",
  "1591": " often",
  "1592": " Euro",
  "1593": "ott",
  "1594": "ann",
  "1595": " won",
  "1596": " give",
  "1597": "oint",
  "1598": " according",
  "1599": " ever",
  "1600": "most",
  "1601": "eng",
  "1602": "year",
  "1603": "wh",
  "1604": "aring",
  "1605": " games",
  "1606": "ison",
  "1607": " human",
  "1608": " bas",
  "1609": " word",
  "1610": "ization",
  "1611": " return",
  "1612": " times",
  "1613": " order",
  "1614": " Russ",
  "1615": " bit",
  "1616": " Dem",
  "1617": " name",
  "1618": "11",
  "1619": "gin",
  "1620": " sever",
  "1621": " All",
  "1622": " dev",
  "1623": "icle",
  "1624": "uture",
  "1625": "for",
  "1626": "ither",
  "1627": "iqu",
  "1628": " par",
  "1629": " 199",
  "1630": " Mc",
  "1631": " wr",
  "1632": " Con",
  "1633": "raft",
  "1634": " sing",
  "1635": " perform",
  "1636": " Sy",
  "1637": "idd",
  "1638": " market",
  "1639": " fac",
  "1640": " charac",
  "1641": "There",
  "1642": " Or",
  "1643": " At",
  "1644": " May",
  "1645": " ra",
  "1646": " doing",
  "1647": " appear",
  "1648": "ER",
  "1649": "ched",
  "1650": " players",
  "1651": " la",
  "1652": " night",
  "1653": " lear",
  "1654": "aken",
  "1655": "rop",
  "1656": "ats",
  "1657": "mber",
  "1658": " today",
  "1659": " early",
  "1660": " 15",
  "1661": " seen",
  "1662": "//",
  "1663": " having",
  "1664": " ,",
  "1665": " pot",
  "1666": " children",
  "1667": " event",
  "1668": " media",
  "1669": " social",
  "1670": " crit",
  "1671": " President",
  "1672": " whether",
  "1673": " several",
  "1674": " control",
  "1675": "idence",
  "1676": " meet",
  "1677": "sh",
  "1678": " milit",
  "1679": " press",
  "1680": " went",
  "1681": "artment",
  "1682": "ene",
  "1683": " five",
  "1684": " young",
  "1685": "ories",
  "1686": " sure",
  "1687": " prop",
  "1688": "iously",
  "1689": " equ",
  "1690": " question",
  "1691": " occ",
  "1692": " likely",
  "1693": "vert",
  "1694": "une",
  "1695": " members",
  "1696": "br",
  "1697": "ands",
  "1698": " certain",
  "1699": "ium",
  "1700": " eng",
  "1701": " water",
  "1702": " York",
  "1703": " example",
  "1704": "ots",
  "1705": " Col",
  "1706": " side",
  "1707": " ant",
  "1708": " arg",
  "1709": " done",
  "1710": "enn",
  "1711": " vers",
  "1712": " invol",
  "1713": " Mr",
  "1714": " States",
  "1715": " Europe",
  "1716": "ended",
  "1717": "let",
  "1718": " along",
  "1719": " short",
  "1720": " success",
  "1721": "ential",
  "1722": " months",
  "1723": "ball",
  "1724": " hour",
  "1725": " 11",
  "1726": " sex",
  "1727": "iver",
  "1728": "ially",
  "1729": "And",
  "1730": "lf",
  "1731": "empt",
  "1732": " within",
  "1733": " desc",
  "1734": "imate",
  "1735": " course",
  "1736": " fight",
  "1737": "ster",
  "1738": "urch",
  "1739": "ubl",
  "1740": " among",
  "1741": " activ",
  "1742": "uff",
  "1743": "â",
  "1744": "ague",
  "1745": " once",
  "1746": " future",
  "1747": " investig",
  "1748": "ulation",
  "1749": "rew",
  "1750": " possible",
  "1751": " Obama",
  "1752": " cho",
  "1753": "nect",
  "1754": " understand",
  "1755": "iting",
  "1756": " concer",
  "1757": " On",
  "1758": " ]",
  "1759": "ones",
  "1760": "ortun",
  "1761": " problem",
  "1762": " Br",
  "1763": " priv",
  "1764": " means",
  "1765": " viol",
  "1766": " Car",
  "1767": " author",
  "1768": "itive",
  "1769": " No",
  "1770": "ggest",
  "1771": " avail",
  "1772": "oci",
  "1773": "ourn",
  "1774": "my",
  "1775": " known",
  "1776": " product",
  "1777": " non",
  "1778": "ivid",
  "1779": " thought",
  "1780": " yet",
  "1781": "gress",
  "1782": " across",
  "1783": " protect",
  "1784": " local",
  "1785": "ald",
  "1786": "ler",
  "1787": " hold",
  "1788": " Te",
  "1789": " fail",
  "1790": " When",
  "1791": " State",
  "1792": "inc",
  "1793": " community",
  "1794": " reason",
  "1795": " orig",
  "1796": " suggest",
  "1797": " &",
  "1798": "12",
  "1799": " makes",
  "1800": "verage",
  "1801": "not",
  "1802": "por",
  "1803": "back",
  "1804": " 2016",
  "1805": " i",
  "1806": "book",
  "1807": " asked",
  "1808": "ederal",
  "1809": "orld",
  "1810": " reported",
  "1811": "You",
  "1812": "aged",
  "1813": "ensive",
  "1814": " given",
  "1815": " strong",
  "1816": " prob",
  "1817": " mus",
  "1818": " others",
  "1819": " believe",
  "1820": " video",
  "1821": "iber",
  "1822": " ben",
  "1823": " getting",
  "1824": " House",
  "1825": "ances",
  "1826": " announ",
  "1827": " light",
  "1828": "ored",
  "1829": "ober",
  "1830": " University",
  "1831": " 30",
  "1832": " Co",
  "1833": "itions",
  "1834": " ident",
  "1835": "iron",
  "1836": " sent",
  "1837": " cut",
  "1838": " lim",
  "1839": " ca",
  "1840": " Christ",
  "1841": "iety",
  "1842": "30",
  "1843": "urther",
  "1844": " sour",
  "1845": " creat",
  "1846": " cond",
  "1847": " X",
  "1848": "rest",
  "1849": "ams",
  "1850": "'ve",
  "1851": " net",
  "1852": "ashing",
  "1853": " bat",
  "1854": "ament",
  "1855": " national",
  "1856": ".,",
  "1857": " close",
  "1858": " started",
  "1859": " saf",
  "1860": " death",
  "1861": "aster",
  "1862": " available",
  "1863": "arm",
  "1864": " hig",
  "1865": "For",
  "1866": " based",
  "1867": " issue",
  "1868": "of",
  "1869": " indust",
  "1870": " Democrat",
  "1871": " Min",
  "1872": " low",
  "1873": " following",
  "1874": "resent",
  "1875": " account",
  "1876": " land",
  "1877": "use",
  "1878": " Cent",
  "1879": " employ",
  "1880": " love",
  "1881": " 2015",
  "1882": " #",
  "1883": " history",
  "1884": " ago",
  "1885": "orts",
  "1886": "selves",
  "1887": " mom",
  "1888": " party",
  "1889": "ability",
  "1890": " series",
  "1891": "eb",
  "1892": " comes",
  "1893": " trying",
  "1894": "uly",
  "1895": "utes",
  "1896": " Am",
  "1897": " almost",
  "1898": "gether",
  "1899": "ument",
  "1900": " together",
  "1901": "ination",
  "1902": "AT",
  "1903": " America",
  "1904": "pro",
  "1905": " idea",
  "1906": "ief",
  "1907": " access",
  "1908": " foc",
  "1909": "hers",
  "1910": "ilar",
  "1911": " Fl",
  "1912": "reed",
  "1913": "ails",
  "1914": " commit",
  "1915": "itional",
  "1916": " isn",
  "1917": " Sen",
  "1918": " clear",
  "1919": " 16",
  "1920": " One",
  "1921": " trad",
  "1922": "though",
  "1923": "ring",
  "1924": " What",
  "1925": " pract",
  "1926": " added",
  "1927": " impro",
  "1928": " experience",
  "1929": "erence",
  "1930": " film",
  "1931": "15",
  "1932": " half",
  "1933": "ustom",
  "1934": "ged",
  "1935": " hit",
  "1936": "af",
  "1937": " Bro",
  "1938": "witter",
  "1939": "rict",
  "1940": " anal",
  "1941": "inton",
  "1942": "ograp",
  "1943": "unch",
  "1944": " 2014",
  "1945": " rul",
  "1946": "ividual",
  "1947": " looking",
  "1948": " six",
  "1949": " live",
  "1950": " anything",
  "1951": " area",
  "1952": " complete",
  "1953": "erman",
  "1954": "minist",
  "1955": " miss",
  "1956": "rael",
  "1957": " Ex",
  "1958": " Comm",
  "1959": " fav",
  "1960": " ris",
  "1961": "ai",
  "1962": "nes",
  "1963": " present",
  "1964": "ote",
  "1965": "rug",
  "1966": " saying",
  "1967": "raw",
  "1968": "aid",
  "1969": " Canad",
  "1970": " vict",
  "1971": "IN",
  "1972": "cially",
  "1973": " bad",
  "1974": "ows",
  "1975": "uge",
  "1976": " taken",
  "1977": "ert",
  "1978": " entire",
  "1979": "oto",
  "1980": " Pr",
  "1981": "ators",
  "1982": "ev",
  "1983": " bill",
  "1984": " compet",
  "1985": " Eng",
  "1986": " mor",
  "1987": " behind",
  "1988": "ien",
  "1989": " aut",
  "1990": " To",
  "1991": "'m",
  "1992": " court",
  "1993": "play",
  "1994": " try",
  "1995": " tre",
  "1996": " military",
  "1997": " z",
  "1998": " near",
  "1999": "osp",
  "2000": " mult",
  "2001": "What",
  "2002": " face",
  "2003": "wards",
  "2004": " 14",
  "2005": " security",
  "2006": " er",
  "2007": " Pol",
  "2008": "sy",
  "2009": " proper",
  "2010": " discuss",
  "2011": " threat",
  "2012": " tot",
  "2013": " study",
  "2014": " single",
  "2015": " rather",
  "2016": " individual",
  "2017": " Af",
  "2018": " Brit",
  "2019": " War",
  "2020": " Â",
  "2021": "ttp",
  "2022": " quick",
  "2023": " Don",
  "2024": " mind",
  "2025": " Sec",
  "2026": "lement",
  "2027": "ales",
  "2028": "amed",
  "2029": "atic",
  "2030": "An",
  "2031": " North",
  "2032": "aper",
  "2033": " publ",
  "2034": " policy",
  "2035": " mess",
  "2036": "ris",
  "2037": "par",
  "2038": " black",
  "2039": " wanted",
  "2040": " fall",
  "2041": "irc",
  "2042": "**",
  "2043": "off",
  "2044": " food",
  "2045": " sum",
  "2046": " someone",
  "2047": "lling",
  "2048": "ids",
  "2049": "On",
  "2050": " |",
  "2051": " /",
  "2052": " cult",
  "2053": " special",
  "2054": " comb",
  "2055": " key",
  "2056": " Man",
  "2057": " player",
  "2058": " redu",
  "2059": " Gr",
  "2060": " bring",
  "2061": " 13",
  "2062": " compan",
  "2063": " 17",
  "2064": "ply",
  "2065": " Dep",
  "2066": " attempt",
  "2067": " National",
  "2068": " taking",
  "2069": " Bar",
  "2070": "When",
  "2071": "ON",
  "2072": "ify",
  "2073": "olution",
  "2074": " :",
  "2075": "viron",
  "2076": " foot",
  "2077": " Cal",
  "2078": "://",
  "2079": " else",
  "2080": " pret",
  "2081": " body",
  "2082": " space",
  "2083": "elt",
  "2084": "rote",
  "2085": "over",
  "2086": "dd",
  "2087": " probably",
  "2088": "16",
  "2089": "icult",
  "2090": ".)",
  "2091": " front",
  "2092": " cou",
  "2093": " nothing",
  "2094": " sw",
  "2095": "ashington",
  "2096": " Im",
  "2097": " connect",
  "2098": "ches",
  "2099": " World",
  "2100": " research",
  "2101": "14",
  "2102": "ming",
  "2103": " Clinton",
  "2104": " City",
  "2105": " coming",
  "2106": " points",
  "2107": " Israel",
  "2108": "RE",
  "2109": " however",
  "2110": " describ",
  "2111": "go",
  "2112": " jo",
  "2113": " signific",
  "2114": " similar",
  "2115": "yn",
  "2116": "reme",
  "2117": "cing",
  "2118": " benef",
  "2119": "lier",
  "2120": " Aust",
  "2121": " decision",
  "2122": " either",
  "2123": "aces",
  "2124": " coun",
  "2125": "ault",
  "2126": "So",
  "2127": " mass",
  "2128": "mb",
  "2129": " Har",
  "2130": " sus",
  "2131": " targ",
  "2132": "ully",
  "2133": "ana",
  "2134": " feat",
  "2135": "That",
  "2136": " imm",
  "2137": " conv",
  "2138": " exist",
  "2139": "irl",
  "2140": " enc",
  "2141": " 2013",
  "2142": " rights",
  "2143": " service",
  "2144": " Su",
  "2145": "asing",
  "2146": "ung",
  "2147": "sw",
  "2148": "IS",
  "2149": " fire",
  "2150": " doc",
  "2151": " wrote",
  "2152": " further",
  "2153": " house",
  "2154": "rodu",
  "2155": " fig",
  "2156": " chall",
  "2157": "ww",
  "2158": " ban",
  "2159": " third",
  "2160": " wa",
  "2161": " create",
  "2162": " stop",
  "2163": " field",
  "2164": "now",
  "2165": " pick",
  "2166": "AN",
  "2167": "ape",
  "2168": "ively",
  "2169": " meas",
  "2170": " repl",
  "2171": " compl",
  "2172": " With",
  "2173": " issues",
  "2174": "pping",
  "2175": " begin",
  "2176": " super",
  "2177": "amer",
  "2178": " step",
  "2179": "ried",
  "2180": "ently",
  "2181": " whole",
  "2182": " relations",
  "2183": " seems",
  "2184": " )",
  "2185": " companies",
  "2186": "pecially",
  "2187": " due",
  "2188": " exec",
  "2189": " cand",
  "2190": " everything",
  "2191": " federal",
  "2192": " Gu",
  "2193": " states",
  "2194": " ey",
  "2195": " room",
  "2196": "aul",
  "2197": " tra",
  "2198": " watch",
  "2199": "oon",
  "2200": " Ge",
  "2201": " custom",
  "2202": " leaders",
  "2203": "13",
  "2204": "uation",
  "2205": " However",
  "2206": "pite",
  "2207": " Jan",
  "2208": " Washington",
  "2209": "Ch",
  "2210": "lam",
  "2211": " self",
  "2212": " role",
  "2213": "ran",
  "2214": "ilt",
  "2215": " sound",
  "2216": " lab",
  "2217": "att",
  "2218": "head",
  "2219": " dam",
  "2220": "ivil",
  "2221": " officials",
  "2222": " stri",
  "2223": " 2012",
  "2224": "lu",
  "2225": "iday",
  "2226": "ibility",
  "2227": " released",
  "2228": " Inst",
  "2229": "eal",
  "2230": " began",
  "2231": " Dav",
  "2232": " App",
  "2233": " South",
  "2234": " opt",
  "2235": "obal",
  "2236": " students",
  "2237": " treat",
  "2238": " final",
  "2239": " character",
  "2240": " position",
  "2241": " matter",
  "2242": "Ã©",
  "2243": "ender",
  "2244": " ener",
  "2245": "lim",
  "2246": " outside",
  "2247": "ery",
  "2248": "sec",
  "2249": "ades",
  "2250": " dou",
  "2251": "vironment",
  "2252": " development",
  "2253": " statement",
  "2254": " himself",
  "2255": " 2017",
  "2256": " above",
  "2257": "like",
  "2258": " stat",
  "2259": " init",
  "2260": " break",
  "2261": " 100",
  "2262": " amount",
  "2263": " provide",
  "2264": " hours",
  "2265": " itself",
  "2266": " themselves",
  "2267": " office",
  "2268": " represent",
  "2269": " action",
  "2270": " Part",
  "2271": " di",
  "2272": " became",
  "2273": " 198",
  "2274": " general",
  "2275": " continue",
  "2276": " countries",
  "2277": " Intern",
  "2278": " neg",
  "2279": "iod",
  "2280": " address",
  "2281": " 25",
  "2282": " gun",
  "2283": "aced",
  "2284": "ask",
  "2285": " true",
  "2286": " specific",
  "2287": "ograph",
  "2288": "umb",
  "2289": "arter",
  "2290": "reg",
  "2291": " larg",
  "2292": " significant",
  "2293": "lish",
  "2294": " simply",
  "2295": " Ass",
  "2296": " Res",
  "2297": " wasn",
  "2298": "'ll",
  "2299": " interview",
  "2300": "acebook",
  "2301": "ili",
  "2302": " ground",
  "2303": " rad",
  "2304": "oid",
  "2305": "ogn",
  "2306": " difficult",
  "2307": " running",
  "2308": " Just",
  "2309": " evidence",
  "2310": " administ",
  "2311": "BC",
  "2312": " cop",
  "2313": "17",
  "2314": "ream",
  "2315": " drug",
  "2316": " version",
  "2317": "ogle",
  "2318": " bar",
  "2319": " Ed",
  "2320": " agree",
  "2321": "eks",
  "2322": "iddle",
  "2323": " building",
  "2324": " China",
  "2325": " needs",
  "2326": " profess",
  "2327": "angu",
  "2328": " groups",
  "2329": "right",
  "2330": " typ",
  "2331": " respons",
  "2332": " common",
  "2333": " shows",
  "2334": " everyone",
  "2335": " dom",
  "2336": " dest",
  "2337": " needed",
  "2338": " ball",
  "2339": " woman",
  "2340": " German",
  "2341": " lat",
  "2342": " below",
  "2343": " tem",
  "2344": "light",
  "2345": "ournal",
  "2346": " music",
  "2347": " exc",
  "2348": " release",
  "2349": "ift",
  "2350": " inj",
  "2351": " pretty",
  "2352": " Med",
  "2353": " Ab",
  "2354": "AR",
  "2355": "ribut",
  "2356": " include",
  "2357": " saw",
  "2358": " deep",
  "2359": " ap",
  "2360": "body",
  "2361": "18",
  "2362": " played",
  "2363": " quite",
  "2364": " industry",
  "2365": " charg",
  "2366": " mag",
  "2367": " energy",
  "2368": " playing",
  "2369": " mot",
  "2370": " 50",
  "2371": " candid",
  "2372": " sense",
  "2373": " phys",
  "2374": " late",
  "2375": " alleg",
  "2376": " white",
  "2377": " His",
  "2378": "ival",
  "2379": " friends",
  "2380": " gen",
  "2381": " legal",
  "2382": "atur",
  "2383": " anim",
  "2384": "isc",
  "2385": "bo",
  "2386": "yle",
  "2387": " After",
  "2388": "How",
  "2389": "AS",
  "2390": "where",
  "2391": " abs",
  "2392": "lev",
  "2393": " instead",
  "2394": " red",
  "2395": " billion",
  "2396": " lost",
  "2397": " especially",
  "2398": " value",
  "2399": " Mus",
  "2400": " West",
  "2401": " host",
  "2402": " hom",
  "2403": "osing",
  "2404": "oring",
  "2405": " News",
  "2406": "time",
  "2407": "ager",
  "2408": " ple",
  "2409": "istic",
  "2410": " weeks",
  "2411": "epend",
  "2412": " Not",
  "2413": "ccording",
  "2414": "omm",
  "2415": " forward",
  "2416": "ique",
  "2417": " deter",
  "2418": " election",
  "2419": " recently",
  "2420": " jud",
  "2421": " track",
  "2422": " suff",
  "2423": " vote",
  "2424": " Twitter",
  "2425": " object",
  "2426": "irt",
  "2427": "lt",
  "2428": "medi",
  "2429": " period",
  "2430": " changes",
  "2431": " opportun",
  "2432": " White",
  "2433": " Oct",
  "2434": " lo",
  "2435": " longer",
  "2436": "arc",
  "2437": "oke",
  "2438": "eed",
  "2439": " ep",
  "2440": " pain",
  "2441": " soon",
  "2442": " site",
  "2443": " {",
  "2444": "hod",
  "2445": "ript",
  "2446": "ached",
  "2447": " accept",
  "2448": " Cong",
  "2449": "____",
  "2450": " shoot",
  "2451": " economic",
  "2452": " hope",
  "2453": "irm",
  "2454": "oe",
  "2455": " moment",
  "2456": " decl",
  "2457": "lege",
  "2458": " consum",
  "2459": " Will",
  "2460": " pie",
  "2461": " tit",
  "2462": " check",
  "2463": "oph",
  "2464": " potential",
  "2465": "ij",
  "2466": " block",
  "2467": " March",
  "2468": "ole",
  "2469": " wrong",
  "2470": "duct",
  "2471": "ners",
  "2472": " Sept",
  "2473": " Department",
  "2474": " higher",
  "2475": "onse",
  "2476": " cred",
  "2477": " online",
  "2478": " focus",
  "2479": " 24",
  "2480": " consider",
  "2481": "key",
  "2482": " educ",
  "2483": "ancial",
  "2484": " My",
  "2485": "ns",
  "2486": "iding",
  "2487": " circ",
  "2488": " works",
  "2489": " relig",
  "2490": " share",
  "2491": " parent",
  "2492": "cial",
  "2493": " held",
  "2494": "25",
  "2495": " pred",
  "2496": " Dr",
  "2497": " walk",
  "2498": " webs",
  "2499": " led",
  "2500": "ularly",
  "2501": "==",
  "2502": " reve",
  "2503": "lear",
  "2504": " stay",
  "2505": " These",
  "2506": "overed",
  "2507": "alt",
  "2508": " stru",
  "2509": " Republican",
  "2510": " risk",
  "2511": " words",
  "2512": " Aug",
  "2513": " rev",
  "2514": " sold",
  "2515": " review",
  "2516": "icro",
  "2517": " contract",
  "2518": " results",
  "2519": " services",
  "2520": " laws",
  "2521": "They",
  "2522": " code",
  "2523": "cil",
  "2524": " Mich",
  "2525": " wind",
  "2526": " function",
  "2527": " aud",
  "2528": " ce",
  "2529": " Syri",
  "2530": "put",
  "2531": "aut",
  "2532": " total",
  "2533": "fect",
  "2534": " article",
  "2535": " age",
  "2536": " applic",
  "2537": " minutes",
  "2538": "urd",
  "2539": " Me",
  "2540": " personal",
  "2541": "ilities",
  "2542": " anyone",
  "2543": "uary",
  "2544": "ients",
  "2545": "itution",
  "2546": "asons",
  "2547": " June",
  "2548": "Ad",
  "2549": "ateg",
  "2550": " prim",
  "2551": "anger",
  "2552": " target",
  "2553": " Ste",
  "2554": "fer",
  "2555": " den",
  "2556": " earlier",
  "2557": "ule",
  "2558": " favor",
  "2559": " express",
  "2560": "haps",
  "2561": " dead",
  "2562": " answ",
  "2563": " upd",
  "2564": " popular",
  "2565": "che",
  "2566": " comput",
  "2567": " vol",
  "2568": "pril",
  "2569": " necess",
  "2570": "ham",
  "2571": " hy",
  "2572": " rate",
  "2573": "ES",
  "2574": "aging",
  "2575": " technology",
  "2576": "apan",
  "2577": " respect",
  "2578": " Pe",
  "2579": "val",
  "2580": " environment",
  "2581": " 2011",
  "2582": "Ph",
  "2583": " received",
  "2584": " expected",
  "2585": "ude",
  "2586": "ends",
  "2587": " goal",
  "2588": " Par",
  "2589": " created",
  "2590": " base",
  "2591": " surpr",
  "2592": " anti",
  "2593": " Sm",
  "2594": " July",
  "2595": "eter",
  "2596": "tee",
  "2597": " problems",
  "2598": "uel",
  "2599": " ways",
  "2600": " port",
  "2601": "iple",
  "2602": "action",
  "2603": " private",
  "2604": " Do",
  "2605": " scient",
  "2606": " increase",
  "2607": "ray",
  "2608": "reet",
  "2609": " announced",
  "2610": " comment",
  "2611": "isl",
  "2612": " cannot",
  "2613": " easy",
  "2614": "Al",
  "2615": " shot",
  "2616": " Congress",
  "2617": " questions",
  "2618": "bit",
  "2619": " force",
  "2620": "aterial",
  "2621": "hern",
  "2622": " impact",
  "2623": "na",
  "2624": " et",
  "2625": " Mond",
  "2626": "ples",
  "2627": " pack",
  "2628": " +",
  "2629": " Facebook",
  "2630": " pur",
  "2631": " langu",
  "2632": "atives",
  "2633": " God",
  "2634": " En",
  "2635": " involved",
  "2636": "omb",
  "2637": "aving",
  "2638": "ills",
  "2639": "60",
  "2640": "lex",
  "2641": "hood",
  "2642": "onst",
  "2643": " Austral",
  "2644": " div",
  "2645": "uesday",
  "2646": " execut",
  "2647": "ctor",
  "2648": " model",
  "2649": "itiz",
  "2650": " sen",
  "2651": " speak",
  "2652": " staff",
  "2653": " exact",
  "2654": " civil",
  "2655": "ires",
  "2656": " nearly",
  "2657": " type",
  "2658": "ourt",
  "2659": "okes",
  "2660": "ees",
  "2661": " original",
  "2662": " cases",
  "2663": " content",
  "2664": " 197",
  "2665": " relationship",
  "2666": " terror",
  "2667": " Google",
  "2668": "To",
  "2669": " leave",
  "2670": " Friday",
  "2671": " response",
  "2672": " capt",
  "2673": " inside",
  "2674": " <",
  "2675": " phot",
  "2676": "lled",
  "2677": "ech",
  "2678": " fans",
  "2679": " April",
  "2680": "rem",
  "2681": " Red",
  "2682": " international",
  "2683": " coll",
  "2684": "cast",
  "2685": " heart",
  "2686": " average",
  "2687": " broad",
  "2688": " arrest",
  "2689": " users",
  "2690": " Count",
  "2691": " cal",
  "2692": "At",
  "2693": "rel",
  "2694": " cell",
  "2695": " worth",
  "2696": " soft",
  "2697": " ur",
  "2698": " living",
  "2699": " Em",
  "2700": "bor",
  "2701": " nation",
  "2702": "ips",
  "2703": "ky",
  "2704": " killed",
  "2705": " reports",
  "2706": " 2010",
  "2707": "ã",
  "2708": "ging",
  "2709": " becom",
  "2710": " source",
  "2711": " Monday",
  "2712": " Tuesday",
  "2713": " subject",
  "2714": " worked",
  "2715": "atural",
  "2716": "ests",
  "2717": " estab",
  "2718": " immedi",
  "2719": "EN",
  "2720": " respond",
  "2721": " global",
  "2722": " associ",
  "2723": "joy",
  "2724": "ellig",
  "2725": " club",
  "2726": "ops",
  "2727": " Americans",
  "2728": "ael",
  "2729": " obs",
  "2730": "ites",
  "2731": " Per",
  "2732": " Pal",
  "2733": " chance",
  "2734": " oil",
  "2735": " Act",
  "2736": " ability",
  "2737": " Ne",
  "2738": " takes",
  "2739": "rought",
  "2740": " weap",
  "2741": "hel",
  "2742": " price",
  "2743": " Japan",
  "2744": "ological",
  "2745": " director",
  "2746": "izing",
  "2747": " workers",
  "2748": " terms",
  "2749": " road",
  "2750": "mon",
  "2751": " published",
  "2752": " del",
  "2753": " While",
  "2754": " tou",
  "2755": " phone",
  "2756": "rain",
  "2757": " collect",
  "2758": " financial",
  "2759": " mid",
  "2760": "osition",
  "2761": " decided",
  "2762": "ises",
  "2763": "OR",
  "2764": " Russia",
  "2765": " Some",
  "2766": " Wed",
  "2767": " mother",
  "2768": " squ",
  "2769": " lack",
  "2770": " defin",
  "2771": "ovember",
  "2772": " 40",
  "2773": " girl",
  "2774": " store",
  "2775": " gave",
  "2776": " buy",
  "2777": " influ",
  "2778": " Calif",
  "2779": " log",
  "2780": " happened",
  "2781": "ino",
  "2782": " require",
  "2783": " Now",
  "2784": " emer",
  "2785": " fem",
  "2786": "\".",
  "2787": " capital",
  "2788": "clus",
  "2789": " foreign",
  "2790": " currently",
  "2791": " Off",
  "2792": "based",
  "2793": " San",
  "2794": " goes",
  "2795": " By",
  "2796": "oved",
  "2797": " Geor",
  "2798": "vertise",
  "2799": " situation",
  "2800": " indic",
  "2801": " offer",
  "2802": " whose",
  "2803": " @",
  "2804": " tal",
  "2805": " material",
  "2806": " lives",
  "2807": "unt",
  "2808": " affect",
  "2809": "rown",
  "2810": "ought",
  "2811": " plans",
  "2812": "nesday",
  "2813": " arri",
  "2814": " member",
  "2815": " pict",
  "2816": "ursday",
  "2817": " Feb",
  "2818": " particip",
  "2819": "ruction",
  "2820": " recogn",
  "2821": " turned",
  "2822": " method",
  "2823": " events",
  "2824": " January",
  "2825": " Hill",
  "2826": " network",
  "2827": "One",
  "2828": " teams",
  "2829": " Sund",
  "2830": " bank",
  "2831": " meeting",
  "2832": "40",
  "2833": "rect",
  "2834": " norm",
  "2835": " introdu",
  "2836": " simple",
  "2837": "fully",
  "2838": " Islam",
  "2839": " ill",
  "2840": " Ag",
  "2841": " huge",
  "2842": " September",
  "2843": "oud",
  "2844": " regard",
  "2845": " areas",
  "2846": " cy",
  "2847": "order",
  "2848": " Cor",
  "2849": "ese",
  "2850": " TV",
  "2851": " couple",
  "2852": " approach",
  "2853": " career",
  "2854": "aur",
  "2855": " Afric",
  "2856": " Gl",
  "2857": "load",
  "2858": "\",",
  "2859": " deli",
  "2860": " race",
  "2861": "lin",
  "2862": " performance",
  "2863": " page",
  "2864": "ety",
  "2865": "apt",
  "2866": " November",
  "2867": " tool",
  "2868": " David",
  "2869": " felt",
  "2870": " quickly",
  "2871": " mis",
  "2872": " numbers",
  "2873": "oor",
  "2874": " email",
  "2875": " 21",
  "2876": "aily",
  "2877": " ord",
  "2878": " El",
  "2879": "istan",
  "2880": " administration",
  "2881": " hon",
  "2882": " Wednesday",
  "2883": " victim",
  "2884": " Paul",
  "2885": " via",
  "2886": " improve",
  "2887": " engine",
  "2888": "chie",
  "2889": "--------",
  "2890": " fre",
  "2891": " pull",
  "2892": " Ang",
  "2893": " round",
  "2894": "bl",
  "2895": " built",
  "2896": " 22",
  "2897": " pers",
  "2898": " European",
  "2899": " dig",
  "2900": "ened",
  "2901": " Thursday",
  "2902": " father",
  "2903": "ornia",
  "2904": " loss",
  "2905": "avy",
  "2906": " thous",
  "2907": "Â­",
  "2908": " http",
  "2909": "ructure",
  "2910": " production",
  "2911": " boy",
  "2912": "ume",
  "2913": " heard",
  "2914": "down",
  "2915": "Sh",
  "2916": " economy",
  "2917": "â.",
  "2918": " enjoy",
  "2919": " August",
  "2920": " trade",
  "2921": " Sch",
  "2922": "face",
  "2923": " website",
  "2924": "iment",
  "2925": " secret",
  "2926": " cover",
  "2927": " reveal",
  "2928": " wide",
  "2929": " board",
  "2930": " match",
  "2931": " Court",
  "2932": "AL",
  "2933": " allowed",
  "2934": " hands",
  "2935": " spent",
  "2936": " travel",
  "2937": " lower",
  "2938": " repe",
  "2939": "atory",
  "2940": " poll",
  "2941": " ste",
  "2942": " included",
  "2943": "cember",
  "2944": " October",
  "2945": " neigh",
  "2946": " legisl",
  "2947": "orters",
  "2948": "uses",
  "2949": " behav",
  "2950": "iction",
  "2951": " knew",
  "2952": " text",
  "2953": " wants",
  "2954": " town",
  "2955": "ights",
  "2956": " British",
  "2957": " separ",
  "2958": "ences",
  "2959": "estern",
  "2960": " visit",
  "2961": " Canada",
  "2962": "anks",
  "2963": "ctions",
  "2964": "With",
  "2965": " perfect",
  "2966": " gets",
  "2967": "ze",
  "2968": "ession",
  "2969": " movement",
  "2970": "ishing",
  "2971": "ground",
  "2972": "agement",
  "2973": " tried",
  "2974": " cause",
  "2975": "?â",
  "2976": "gest",
  "2977": " }",
  "2978": " forces",
  "2979": " Sunday",
  "2980": " ens",
  "2981": "After",
  "2982": "force",
  "2983": "ceed",
  "2984": " attention",
  "2985": " particular",
  "2986": " bi",
  "2987": "][",
  "2988": "ening",
  "2989": " veh",
  "2990": " bud",
  "2991": " fear",
  "2992": " population",
  "2993": " various",
  "2994": " UK",
  "2995": " reach",
  "2996": "ma",
  "2997": " looks",
  "2998": " 23",
  "2999": " California",
  "3000": " brought",
  "3001": " vo",
  "3002": " Kore",
  "3003": " link",
  "3004": "ibly",
  "3005": ");",
  "3006": "urning",
  "3007": "arily",
  "3008": " IS",
  "3009": "200",
  "3010": " previous",
  "3011": "ED",
  "3012": " mention",
  "3013": " Russian",
  "3014": " morning",
  "3015": " Qu",
  "3016": "cle",
  "3017": "idered",
  "3018": "eg",
  "3019": "'d",
  "3020": " fair",
  "3021": " growth",
  "3022": "aker",
  "3023": " Sw",
  "3024": "undred",
  "3025": "99",
  "3026": "sequ",
  "3027": "yond",
  "3028": " progress",
  "3029": " fell",
  "3030": "raz",
  "3031": "alled",
  "3032": " song",
  "3033": "iam",
  "3034": " Cont",
  "3035": "AC",
  "3036": " training",
  "3037": "field",
  "3038": "hold",
  "3039": "uk",
  "3040": " size",
  "3041": " Black",
  "3042": "cies",
  "3043": " December",
  "3044": "idents",
  "3045": " contact",
  "3046": "ledge",
  "3047": " Her",
  "3048": " demand",
  "3049": "While",
  "3050": " image",
  "3051": " hor",
  "3052": " rac",
  "3053": " hot",
  "3054": "ification",
  "3055": "OS",
  "3056": " leader",
  "3057": "set",
  "3058": "ecause",
  "3059": " rules",
  "3060": " prep",
  "3061": " liber",
  "3062": " search",
  "3063": " ess",
  "3064": " Post",
  "3065": " citiz",
  "3066": " upon",
  "3067": " strugg",
  "3068": " Street",
  "3069": " latest",
  "3070": "come",
  "3071": " independ",
  "3072": "US",
  "3073": "uments",
  "3074": "inks",
  "3075": "arth",
  "3076": " features",
  "3077": " coach",
  "3078": "ondon",
  "3079": " Park",
  "3080": "iant",
  "3081": " fast",
  "3082": "Tr",
  "3083": "oo",
  "3084": "sych",
  "3085": " talking",
  "3086": " Jew",
  "3087": "omp",
  "3088": " addition",
  "3089": "ges",
  "3090": " star",
  "3091": " wond",
  "3092": " Senate",
  "3093": "IT",
  "3094": " Pat",
  "3095": " speed",
  "3096": " exam",
  "3097": " considered",
  "3098": "raq",
  "3099": "icles",
  "3100": "aries",
  "3101": " reb",
  "3102": "bed",
  "3103": " levels",
  "3104": "eth",
  "3105": " Times",
  "3106": " County",
  "3107": "elligence",
  "3108": " slow",
  "3109": " investigation",
  "3110": "ps",
  "3111": "ille",
  "3112": " conduct",
  "3113": "aph",
  "3114": " Party",
  "3115": "22",
  "3116": " King",
  "3117": " medical",
  "3118": " mach",
  "3119": "imately",
  "3120": "vent",
  "3121": " achie",
  "3122": " language",
  "3123": "aturday",
  "3124": " card",
  "3125": " sn",
  "3126": "unk",
  "3127": " sort",
  "3128": " critic",
  "3129": "ope",
  "3130": " Tex",
  "3131": " Center",
  "3132": " pen",
  "3133": " und",
  "3134": "wo",
  "3135": " India",
  "3136": " paper",
  "3137": "ysis",
  "3138": "IC",
  "3139": " 2008",
  "3140": "pir",
  "3141": " conserv",
  "3142": " parents",
  "3143": "imin",
  "3144": " sexual",
  "3145": " systems",
  "3146": " prior",
  "3147": "ha",
  "3148": "uit",
  "3149": "asc",
  "3150": " doll",
  "3151": " written",
  "3152": "uf",
  "3153": " box",
  "3154": " spokes",
  "3155": "igr",
  "3156": " seek",
  "3157": " sens",
  "3158": "het",
  "3159": " document",
  "3160": "idge",
  "3161": "eared",
  "3162": " increasing",
  "3163": " hear",
  "3164": "ani",
  "3165": "atform",
  "3166": " draw",
  "3167": " seven",
  "3168": " son",
  "3169": " Muslim",
  "3170": " effort",
  "3171": "ruary",
  "3172": " jobs",
  "3173": " Iran",
  "3174": " extreme",
  "3175": " prevent",
  "3176": " learn",
  "3177": "ining",
  "3178": " serious",
  "3179": " regul",
  "3180": "rast",
  "3181": " inn",
  "3182": " range",
  "3183": " ...",
  "3184": "room",
  "3185": " violence",
  "3186": " eight",
  "3187": " Mark",
  "3188": "80",
  "3189": "ources",
  "3190": " Iraq",
  "3191": "itch",
  "3192": "OP",
  "3193": " surve",
  "3194": " completely",
  "3195": " conc",
  "3196": " 2009",
  "3197": " message",
  "3198": "ico",
  "3199": "tr",
  "3200": " â",
  "3201": "She",
  "3202": " obv",
  "3203": " interesting",
  "3204": "reedom",
  "3205": " screen",
  "3206": "abor",
  "3207": " opportunity",
  "3208": "eff",
  "3209": " climate",
  "3210": "24",
  "3211": "ext",
  "3212": " majority",
  "3213": " Ke",
  "3214": "anced",
  "3215": " particularly",
  "3216": " doub",
  "3217": " journal",
  "3218": " Rom",
  "3219": " despite",
  "3220": " claims",
  "3221": " Char",
  "3222": " answer",
  "3223": " society",
  "3224": " London",
  "3225": " defense",
  "3226": " carry",
  "3227": "entially",
  "3228": "aming",
  "3229": " guy",
  "3230": " extra",
  "3231": "ension",
  "3232": "mp",
  "3233": " Donald",
  "3234": "isions",
  "3235": " attacks",
  "3236": " required",
  "3237": "erve",
  "3238": "rench",
  "3239": "illed",
  "3240": " biggest",
  "3241": "vertisement",
  "3242": " East",
  "3243": " exactly",
  "3244": "iers",
  "3245": " paid",
  "3246": " More",
  "3247": "ibr",
  "3248": " experien",
  "3249": " aren",
  "3250": "lying",
  "3251": "uclear",
  "3252": "inese",
  "3253": " modern",
  "3254": " remain",
  "3255": " quarter",
  "3256": " officers",
  "3257": "ett",
  "3258": " hundred",
  "3259": " cross",
  "3260": " except",
  "3261": "utions",
  "3262": "ari",
  "3263": " table",
  "3264": " practice",
  "3265": " natural",
  "3266": "inally",
  "3267": " middle",
  "3268": "erc",
  "3269": " 27",
  "3270": " certainly",
  "3271": " dro",
  "3272": "add",
  "3273": "oses",
  "3274": " Saturday",
  "3275": " stories",
  "3276": " Net",
  "3277": " histor",
  "3278": " gas",
  "3279": " products",
  "3280": " surv",
  "3281": " looked",
  "3282": " sometimes",
  "3283": "nces",
  "3284": " stuff",
  "3285": " rout",
  "3286": " science",
  "3287": " finally",
  "3288": " user",
  "3289": "AM",
  "3290": " summer",
  "3291": " movie",
  "3292": " blood",
  "3293": "ospital",
  "3294": "aves",
  "3295": " communic",
  "3296": " aw",
  "3297": "ously",
  "3298": " lay",
  "3299": " changed",
  "3300": " ones",
  "3301": " leading",
  "3302": " described",
  "3303": " Sand",
  "3304": " imag",
  "3305": " term",
  "3306": " February",
  "3307": "fl",
  "3308": " prison",
  "3309": " convers",
  "3310": "ny",
  "3311": " details",
  "3312": "icks",
  "3313": " starting",
  "3314": " Spe",
  "3315": " quality",
  "3316": " occur",
  "3317": " pan",
  "3318": "hib",
  "3319": " showed",
  "3320": " named",
  "3321": " giving",
  "3322": " ult",
  "3323": " remains",
  "3324": " McC",
  "3325": "uing",
  "3326": " region",
  "3327": "pper",
  "3328": " provided",
  "3329": " costs",
  "3330": "akers",
  "3331": " Soc",
  "3332": "arr",
  "3333": " damage",
  "3334": " mob",
  "3335": " danger",
  "3336": " fit",
  "3337": "aught",
  "3338": " TH",
  "3339": " Tur",
  "3340": " chief",
  "3341": " poor",
  "3342": " path",
  "3343": " Mor",
  "3344": "ida",
  "3345": " education",
  "3346": " multiple",
  "3347": " continued",
  "3348": "enge",
  "3349": " Int",
  "3350": " growing",
  "3351": "No",
  "3352": " demonst",
  "3353": " Che",
  "3354": " *",
  "3355": " parts",
  "3356": "yl",
  "3357": " 26",
  "3358": " writing",
  "3359": " comments",
  "3360": " 28",
  "3361": " ment",
  "3362": " maintain",
  "3363": " safe",
  "3364": " assist",
  "3365": " thinking",
  "3366": " Des",
  "3367": "inary",
  "3368": " Republicans",
  "3369": " Even",
  "3370": " purp",
  "3371": " request",
  "3372": " write",
  "3373": " fix",
  "3374": " item",
  "3375": " purch",
  "3376": "ables",
  "3377": " died",
  "3378": " Democratic",
  "3379": " Coun",
  "3380": "FL",
  "3381": "ago",
  "3382": " ready",
  "3383": "coin",
  "3384": " wouldn",
  "3385": " implement",
  "3386": "23",
  "3387": " increased",
  "3388": " culture",
  "3389": "fort",
  "3390": " efforts",
  "3391": " voters",
  "3392": "ux",
  "3393": "pre",
  "3394": " camer",
  "3395": " mill",
  "3396": "aly",
  "3397": "....",
  "3398": "oper",
  "3399": " reading",
  "3400": "mitted",
  "3401": "iminal",
  "3402": " file",
  "3403": " usually",
  "3404": " calls",
  "3405": " spot",
  "3406": " effects",
  "3407": "Im",
  "3408": " Gener",
  "3409": "zz",
  "3410": " perhaps",
  "3411": "ban",
  "3412": " alone",
  "3413": "arian",
  "3414": "iles",
  "3415": " First",
  "3416": " although",
  "3417": " towards",
  "3418": " League",
  "3419": "de",
  "3420": " consist",
  "3421": " Bill",
  "3422": " Texas",
  "3423": " select",
  "3424": " guys",
  "3425": " standard",
  "3426": " Michael",
  "3427": " subst",
  "3428": " cele",
  "3429": " beyond",
  "3430": " directly",
  "3431": " platform",
  "3432": " Chinese",
  "3433": " (@",
  "3434": " hous",
  "3435": "using",
  "3436": "itute",
  "3437": " speech",
  "3438": " reality",
  "3439": "icated",
  "3440": " kids",
  "3441": " James",
  "3442": " avoid",
  "3443": " throughout",
  "3444": " football",
  "3445": " student",
  "3446": "ara",
  "3447": " couldn",
  "3448": "rowd",
  "3449": "BI",
  "3450": " unf",
  "3451": "ford",
  "3452": " immediately",
  "3453": "oul",
  "3454": " rob",
  "3455": " includes",
  "3456": " cat",
  "3457": " concept",
  "3458": "egr",
  "3459": " center",
  "3460": " choice",
  "3461": " scene",
  "3462": " complex",
  "3463": "anch",
  "3464": " additional",
  "3465": "sp",
  "3466": " Mon",
  "3467": " challeng",
  "3468": " Cons",
  "3469": " wife",
  "3470": " clos",
  "3471": "urt",
  "3472": " tro",
  "3473": " recomm",
  "3474": " researc",
  "3475": "Re",
  "3476": " epis",
  "3477": "hest",
  "3478": "itor",
  "3479": "All",
  "3480": " ver",
  "3481": " Minister",
  "3482": " sle",
  "3483": " corpor",
  "3484": " â¦",
  "3485": " designed",
  "3486": " Ser",
  "3487": "urg",
  "3488": "agon",
  "3489": " remember",
  "3490": " software",
  "3491": " safety",
  "3492": " Indian",
  "3493": "wise",
  "3494": " gone",
  "3495": " il",
  "3496": "astic",
  "3497": "ports",
  "3498": " cast",
  "3499": " sell",
  "3500": " toward",
  "3501": " agency",
  "3502": " ten",
  "3503": " officer",
  "3504": "aches",
  "3505": " figure",
  "3506": " piece",
  "3507": " brain",
  "3508": "omen",
  "3509": " battle",
  "3510": " Jack",
  "3511": "men",
  "3512": " counter",
  "3513": " debate",
  "3514": "airs",
  "3515": "ression",
  "3516": "ston",
  "3517": " thousands",
  "3518": "adem",
  "3519": " swe",
  "3520": "rupt",
  "3521": " opin",
  "3522": " ahead",
  "3523": "icient",
  "3524": "Now",
  "3525": "imum",
  "3526": " relative",
  "3527": "irth",
  "3528": " letter",
  "3529": " receive",
  "3530": " pressure",
  "3531": " Ð",
  "3532": " Bo",
  "3533": " blog",
  "3534": "ilies",
  "3535": "ampions",
  "3536": " >",
  "3537": " sil",
  "3538": " moved",
  "3539": " launch",
  "3540": " appears",
  "3541": " option",
  "3542": " Play",
  "3543": " passed",
  "3544": " ut",
  "3545": " prec",
  "3546": " stage",
  "3547": "roy",
  "3548": "oes",
  "3549": " 60",
  "3550": " clean",
  "3551": " Serv",
  "3552": "olute",
  "3553": " II",
  "3554": "atever",
  "3555": "berg",
  "3556": "OT",
  "3557": " property",
  "3558": "27",
  "3559": " helped",
  "3560": "amb",
  "3561": " drive",
  "3562": " Apple",
  "3563": "just",
  "3564": " alleged",
  "3565": " Green",
  "3566": " twe",
  "3567": "new",
  "3568": " disapp",
  "3569": " tour",
  "3570": " meaning",
  "3571": " rock",
  "3572": " dog",
  "3573": " x",
  "3574": " cris",
  "3575": "itation",
  "3576": " Associ",
  "3577": " suspect",
  "3578": " date",
  "3579": " Rich",
  "3580": "aughter",
  "3581": " moving",
  "3582": " score",
  "3583": " Democrats",
  "3584": " organization",
  "3585": " sat",
  "3586": " conditions",
  "3587": " touch",
  "3588": " dark",
  "3589": " command",
  "3590": " Then",
  "3591": " ign",
  "3592": "?\"",
  "3593": " reasons",
  "3594": " budget",
  "3595": " park",
  "3596": "more",
  "3597": " nuclear",
  "3598": " myself",
  "3599": " nom",
  "3600": " deg",
  "3601": " happy",
  "3602": " device",
  "3603": " difference",
  "3604": "rief",
  "3605": " Sim",
  "3606": " maybe",
  "3607": "chan",
  "3608": " beginning",
  "3609": "AD",
  "3610": " copy",
  "3611": " nature",
  "3612": " failed",
  "3613": "wood",
  "3614": " fan",
  "3615": " characters",
  "3616": "yan",
  "3617": " computer",
  "3618": " encour",
  "3619": " aim",
  "3620": " Mart",
  "3621": " title",
  "3622": " wall",
  "3623": " compared",
  "3624": " league",
  "3625": "ocked",
  "3626": " Super",
  "3627": "ivity",
  "3628": " estim",
  "3629": " Val",
  "3630": " Star",
  "3631": " college",
  "3632": " eyes",
  "3633": " shown",
  "3634": " English",
  "3635": " century",
  "3636": " powerful",
  "3637": " Day",
  "3638": "lease",
  "3639": "ource",
  "3640": " bal",
  "3641": "aint",
  "3642": " limited",
  "3643": " yes",
  "3644": " band",
  "3645": " contribut",
  "3646": " positive",
  "3647": " forced",
  "3648": " sche",
  "3649": " necessary",
  "3650": " refer",
  "3651": " candidate",
  "3652": " stra",
  "3653": " disp",
  "3654": "35",
  "3655": "cient",
  "3656": " books",
  "3657": " trust",
  "3658": "AP",
  "3659": " French",
  "3660": " largest",
  "3661": "26",
  "3662": " arch",
  "3663": "enty",
  "3664": " sal",
  "3665": " Here",
  "3666": " conference",
  "3667": " Rober",
  "3668": "aud",
  "3669": " note",
  "3670": " analysis",
  "3671": "ufact",
  "3672": " spending",
  "3673": " presidential",
  "3674": "45",
  "3675": " Of",
  "3676": " citizens",
  "3677": "orks",
  "3678": " schools",
  "3679": "igration",
  "3680": " Syria",
  "3681": " throw",
  "3682": "venue",
  "3683": " Ben",
  "3684": " aware",
  "3685": " meant",
  "3686": " executive",
  "3687": " eventually",
  "3688": "My",
  "3689": " physical",
  "3690": " followed",
  "3691": " feature",
  "3692": " treatment",
  "3693": " crowd",
  "3694": "Be",
  "3695": " Tor",
  "3696": " Wind",
  "3697": " firm",
  "3698": " streng",
  "3699": " confir",
  "3700": " mix",
  "3701": " bott",
  "3702": "ero",
  "3703": " correct",
  "3704": "orney",
  "3705": " 29",
  "3706": "ares",
  "3707": " Dis",
  "3708": " grad",
  "3709": " religious",
  "3710": " easily",
  "3711": " autom",
  "3712": " esc",
  "3713": " pus",
  "3714": "band",
  "3715": "board",
  "3716": "Is",
  "3717": " cool",
  "3718": "etro",
  "3719": " 196",
  "3720": " families",
  "3721": " illeg",
  "3722": "ressed",
  "3723": "craft",
  "3724": "cul",
  "3725": "rated",
  "3726": " actions",
  "3727": " overall",
  "3728": " Air",
  "3729": " Mex",
  "3730": " allows",
  "3731": " gives",
  "3732": " feed",
  "3733": " Â£",
  "3734": "):",
  "3735": " susp",
  "3736": "ube",
  "3737": " yourself",
  "3738": "By",
  "3739": " draft",
  "3740": "bum",
  "3741": "ken",
  "3742": " smart",
  "3743": " appeared",
  "3744": " detail",
  "3745": " income",
  "3746": "iring",
  "3747": " analy",
  "3748": " Bel",
  "3749": " signed",
  "3750": "New",
  "3751": "encies",
  "3752": " central",
  "3753": " ideas",
  "3754": " ang",
  "3755": " Govern",
  "3756": " senior",
  "3757": "Advertisement",
  "3758": " frequ",
  "3759": " weapons",
  "3760": "ID",
  "3761": " Bre",
  "3762": " har",
  "3763": " display",
  "3764": " promot",
  "3765": " nice",
  "3766": " credit",
  "3767": " decades",
  "3768": " psych",
  "3769": " politics",
  "3770": "Don",
  "3771": " crime",
  "3772": "OM",
  "3773": "EC",
  "3774": " uses",
  "3775": "inn",
  "3776": " door",
  "3777": " dise",
  "3778": "uty",
  "3779": " International",
  "3780": " unique",
  "3781": "28",
  "3782": " altern",
  "3783": " lif",
  "3784": "According",
  "3785": " drop",
  "3786": " sales",
  "3787": "mar",
  "3788": " developed",
  "3789": "Ar",
  "3790": "resh",
  "3791": " customers",
  "3792": "ET",
  "3793": " benefits",
  "3794": " conflic",
  "3795": "urance",
  "3796": " related",
  "3797": " crisis",
  "3798": " School",
  "3799": " mist",
  "3800": "erry",
  "3801": "iable",
  "3802": " predict",
  "3803": " noted",
  "3804": " Cap",
  "3805": "29",
  "3806": " Australia",
  "3807": " EU",
  "3808": " truth",
  "3809": "box",
  "3810": "part",
  "3811": " goals",
  "3812": "iny",
  "3813": " individuals",
  "3814": " charge",
  "3815": " Earth",
  "3816": " beaut",
  "3817": " continues",
  "3818": "onents",
  "3819": " Union",
  "3820": " Arab",
  "3821": " observ",
  "3822": " rap",
  "3823": " challenge",
  "3824": " sto",
  "3825": "nown",
  "3826": " apparent",
  "3827": " Angel",
  "3828": "itely",
  "3829": " Smith",
  "3830": " lic",
  "3831": " projects",
  "3832": " peace",
  "3833": " measure",
  "3834": " Police",
  "3835": "oti",
  "3836": " intelligence",
  "3837": " Christian",
  "3838": " previously",
  "3839": " Germany",
  "3840": " fully",
  "3841": " rule",
  "3842": " manager",
  "3843": " brother",
  "3844": " rates",
  "3845": " advant",
  "3846": "Un",
  "3847": "change",
  "3848": " expand",
  "3849": " clearly",
  "3850": " reform",
  "3851": " lines",
  "3852": "net",
  "3853": " successful",
  "3854": "riage",
  "3855": " highly",
  "3856": " larger",
  "3857": "ounds",
  "3858": "21",
  "3859": " traff",
  "3860": " spread",
  "3861": "iance",
  "3862": " seemed",
  "3863": " Council",
  "3864": " straight",
  "3865": "Some",
  "3866": " criminal",
  "3867": " Comp",
  "3868": " minor",
  "3869": " emb",
  "3870": "ki",
  "3871": " George",
  "3872": " programs",
  "3873": "iced",
  "3874": "attle",
  "3875": "owers",
  "3876": " Franc",
  "3877": " incident",
  "3878": " resources",
  "3879": " Tom",
  "3880": " greater",
  "3881": " primary",
  "3882": "IA",
  "3883": "inated",
  "3884": "antly",
  "3885": " knowledge",
  "3886": "Pro",
  "3887": " studies",
  "3888": "while",
  "3889": "dom",
  "3890": " save",
  "3891": "orter",
  "3892": " web",
  "3893": "ategy",
  "3894": "ean",
  "3895": " kept",
  "3896": " attract",
  "3897": " Flor",
  "3898": "olic",
  "3899": " spir",
  "3900": " emot",
  "3901": "que",
  "3902": " color",
  "3903": " feet",
  "3904": " Cr",
  "3905": "sey",
  "3906": " rare",
  "3907": " reached",
  "3908": " Ant",
  "3909": "secut",
  "3910": " arm",
  "3911": " High",
  "3912": "levision",
  "3913": " Internet",
  "3914": " Brown",
  "3915": "oday",
  "3916": "iders",
  "3917": "osh",
  "3918": " favorite",
  "3919": " places",
  "3920": "rs",
  "3921": " Rec",
  "3922": " regular",
  "3923": "wide",
  "3924": "ota",
  "3925": "vere",
  "3926": " manufact",
  "3927": " laun",
  "3928": " Def",
  "3929": "100",
  "3930": " send",
  "3931": " prem",
  "3932": " Ham",
  "3933": "roll",
  "3934": "lick",
  "3935": "icit",
  "3936": " knows",
  "3937": " shooting",
  "3938": " activity",
  "3939": " pun",
  "3940": " sources",
  "3941": " normal",
  "3942": "icago",
  "3943": "bon",
  "3944": "term",
  "3945": "ingly",
  "3946": "onent",
  "3947": "ser",
  "3948": "ville",
  "3949": " status",
  "3950": " fighting",
  "3951": " voice",
  "3952": " rise",
  "3953": "ocks",
  "3954": " fine",
  "3955": " owners",
  "3956": " caused",
  "3957": " claimed",
  "3958": " Mac",
  "3959": " enem",
  "3960": " liter",
  "3961": " Rob",
  "3962": " Up",
  "3963": " General",
  "3964": "aith",
  "3965": "EO",
  "3966": " options",
  "3967": " 2007",
  "3968": " integr",
  "3969": "ength",
  "3970": "usion",
  "3971": " spend",
  "3972": " Gold",
  "3973": "ado",
  "3974": " cities",
  "3975": "miss",
  "3976": " organiz",
  "3977": "ING",
  "3978": " ended",
  "3979": "iled",
  "3980": " researchers",
  "3981": " calling",
  "3982": " shut",
  "3983": " reflect",
  "3984": " La",
  "3985": "mission",
  "3986": "mark",
  "3987": "org",
  "3988": "â,",
  "3989": "oles",
  "3990": "70",
  "3991": "roid",
  "3992": " prices",
  "3993": " Every",
  "3994": " album",
  "3995": " From",
  "3996": "ifying",
  "3997": " employees",
  "3998": " female",
  "3999": " England",
  "4000": "ya",
  "4001": "www",
  "4002": " virt",
  "4003": " haven",
  "4004": " raised",
  "4005": "mittee",
  "4006": " ele",
  "4007": " jump",
  "4008": "uana",
  "4009": "33",
  "4010": " supposed",
  "4011": "itness",
  "4012": " happens",
  "4013": " adding",
  "4014": " policies",
  "4015": " names",
  "4016": " charges",
  "4017": " pros",
  "4018": " trou",
  "4019": "ica",
  "4020": "ribution",
  "4021": " basic",
  "4022": "iverse",
  "4023": "uman",
  "4024": "Not",
  "4025": " Mag",
  "4026": " concerns",
  "4027": " traditional",
  "4028": " wait",
  "4029": "inger",
  "4030": " plant",
  "4031": " absolute",
  "4032": " acqu",
  "4033": " hospital",
  "4034": " funding",
  "4035": "ram",
  "4036": " Bay",
  "4037": " print",
  "4038": " slight",
  "4039": " commer",
  "4040": "rol",
  "4041": " patients",
  "4042": " authorities",
  "4043": " minister",
  "4044": "Sc",
  "4045": " creating",
  "4046": " freedom",
  "4047": " AP",
  "4048": " mechan",
  "4049": " scen",
  "4050": " Mo",
  "4051": " style",
  "4052": " seeing",
  "4053": " grand",
  "4054": ".â",
  "4055": " beat",
  "4056": " lik",
  "4057": "ona",
  "4058": "rian",
  "4059": " station",
  "4060": " Scott",
  "4061": "see",
  "4062": " push",
  "4063": "ijuana",
  "4064": " behavior",
  "4065": " beg",
  "4066": " leaving",
  "4067": " cry",
  "4068": " impl",
  "4069": " birth",
  "4070": " ir",
  "4071": " actual",
  "4072": "EL",
  "4073": " ensure",
  "4074": " offered",
  "4075": "pen",
  "4076": " agreement",
  "4077": " Florida",
  "4078": " eth",
  "4079": "soft",
  "4080": " Hillary",
  "4081": " posted",
  "4082": " gold",
  "4083": " Sun",
  "4084": " weekend",
  "4085": " green",
  "4086": " Most",
  "4087": " Ber",
  "4088": " Reg",
  "4089": " adult",
  "4090": "alse",
  "4091": " weight",
  "4092": "OU",
  "4093": ".'",
  "4094": "acing",
  "4095": " determin",
  "4096": " vac",
  "4097": "Here",
  "4098": " revealed",
  "4099": " Well",
  "4100": " application",
  "4101": " mostly",
  "4102": " values",
  "4103": " propos",
  "4104": "itude",
  "4105": " Alex",
  "4106": "aby",
  "4107": " willing",
  "4108": "earch",
  "4109": " rank",
  "4110": " adop",
  "4111": " According",
  "4112": " establ",
  "4113": " eye",
  "4114": " records",
  "4115": "ection",
  "4116": "â¢",
  "4117": "500",
  "4118": " enforce",
  "4119": "http",
  "4120": " picture",
  "4121": " believed",
  "4122": "pri",
  "4123": " mer",
  "4124": "uild",
  "4125": " brief",
  "4126": " Let",
  "4127": " learned",
  "4128": " Law",
  "4129": " install",
  "4130": " strategy",
  "4131": " appl",
  "4132": "SA",
  "4133": "igned",
  "4134": " choose",
  "4135": "istry",
  "4136": " dire",
  "4137": " wonder",
  "4138": " qual",
  "4139": " massive",
  "4140": " devices",
  "4141": " benefit",
  "4142": " wild",
  "4143": " parties",
  "4144": " Chicago",
  "4145": " lawy",
  "4146": " People",
  "4147": " uns",
  "4148": "cher",
  "4149": " cars",
  "4150": " Trans",
  "4151": " Port",
  "4152": "cont",
  "4153": " Phil",
  "4154": " arrested",
  "4155": " mount",
  "4156": " whatever",
  "4157": " wat",
  "4158": " Oh",
  "4159": " France",
  "4160": " street",
  "4161": " ;",
  "4162": " provides",
  "4163": " whom",
  "4164": " assault",
  "4165": "90",
  "4166": "liament",
  "4167": " asking",
  "4168": " influence",
  "4169": "ties",
  "4170": " judge",
  "4171": " lose",
  "4172": " fat",
  "4173": " feeling",
  "4174": " operations",
  "4175": " produced",
  "4176": " temper",
  "4177": "ste",
  "4178": " critical",
  "4179": " Secret",
  "4180": " Lou",
  "4181": " negoti",
  "4182": "point",
  "4183": " mission",
  "4184": " enter",
  "4185": " Bush",
  "4186": "Ex",
  "4187": " images",
  "4188": "Ð¾",
  "4189": " Stud",
  "4190": " confirmed",
  "4191": " showing",
  "4192": "IL",
  "4193": " district",
  "4194": "ription",
  "4195": " runs",
  "4196": " pattern",
  "4197": "gen",
  "4198": " tend",
  "4199": " Mat",
  "4200": " border",
  "4201": " residents",
  "4202": "orial",
  "4203": "rav",
  "4204": " debt",
  "4205": "However",
  "4206": " Ã",
  "4207": "aked",
  "4208": "no",
  "4209": " cru",
  "4210": " teac",
  "4211": "mine",
  "4212": " Committee",
  "4213": "udd",
  "4214": " opposition",
  "4215": "Cl",
  "4216": " celebr",
  "4217": " Wall",
  "4218": " Health",
  "4219": " section",
  "4220": " defend",
  "4221": " etc",
  "4222": "estic",
  "4223": " produce",
  "4224": "icial",
  "4225": " Commission",
  "4226": " drink",
  "4227": " independent",
  "4228": " Mod",
  "4229": "ront",
  "4230": "cell",
  "4231": " Why",
  "4232": " brand",
  "4233": "ented",
  "4234": "ags",
  "4235": "ugg",
  "4236": " core",
  "4237": " Press",
  "4238": " tick",
  "4239": " digital",
  "4240": " Bit",
  "4241": " hero",
  "4242": " advoc",
  "4243": "ae",
  "4244": " dollars",
  "4245": "ocr",
  "4246": "rial",
  "4247": " effective",
  "4248": " solution",
  "4249": " Mal",
  "4250": " vill",
  "4251": " interested",
  "4252": " Sam",
  "4253": " Korea",
  "4254": "BA",
  "4255": " highest",
  "4256": "ords",
  "4257": " memory",
  "4258": " opening",
  "4259": " worse",
  "4260": " learning",
  "4261": " responsible",
  "4262": " trial",
  "4263": " daily",
  "4264": " kick",
  "4265": " theory",
  "4266": " Other",
  "4267": " offers",
  "4268": " Palest",
  "4269": " replace",
  "4270": " restrict",
  "4271": " Get",
  "4272": " mur",
  "4273": " Office",
  "4274": " agreed",
  "4275": " television",
  "4276": " Francis",
  "4277": "cience",
  "4278": " Micro",
  "4279": " Because",
  "4280": " occas",
  "4281": "ST",
  "4282": "illing",
  "4283": "CC",
  "4284": " train",
  "4285": " investment",
  "4286": " vs",
  "4287": " types",
  "4288": "iation",
  "4289": " Western",
  "4290": "aks",
  "4291": "icians",
  "4292": " chair",
  "4293": " miles",
  "4294": " millions",
  "4295": "uries",
  "4296": " chem",
  "4297": " Justice",
  "4298": " Del",
  "4299": " generally",
  "4300": " basis",
  "4301": " proposed",
  "4302": " 80",
  "4303": " Mike",
  "4304": " Mil",
  "4305": " Cup",
  "4306": "These",
  "4307": "ipe",
  "4308": " heavy",
  "4309": " explained",
  "4310": " map",
  "4311": " Our",
  "4312": "AA",
  "4313": "rad",
  "4314": " der",
  "4315": " bur",
  "4316": "oly",
  "4317": " partners",
  "4318": "ander",
  "4319": " Add",
  "4320": " opinion",
  "4321": "win",
  "4322": " defe",
  "4323": " onto",
  "4324": " protest",
  "4325": "Con",
  "4326": "________",
  "4327": "Get",
  "4328": " associated",
  "4329": " load",
  "4330": "rig",
  "4331": "azing",
  "4332": " NFL",
  "4333": "rate",
  "4334": "oom",
  "4335": "44",
  "4336": " Found",
  "4337": " male",
  "4338": " becomes",
  "4339": " reject",
  "4340": "outhern",
  "4341": "====",
  "4342": " Security",
  "4343": "vest",
  "4344": " coal",
  "4345": " obtain",
  "4346": " destroy",
  "4347": " advantage",
  "4348": " assum",
  "4349": " Liber",
  "4350": " condition",
  "4351": " announce",
  "4352": " hundreds",
  "4353": " achieve",
  "4354": " opened",
  "4355": "eline",
  "4356": " understanding",
  "4357": "odes",
  "4358": " Johnson",
  "4359": "coming",
  "4360": "icip",
  "4361": " surround",
  "4362": "ading",
  "4363": "orthern",
  "4364": "bert",
  "4365": "well",
  "4366": "la",
  "4367": "upp",
  "4368": " initial",
  "4369": " Att",
  "4370": " Big",
  "4371": " sleep",
  "4372": "36",
  "4373": " ship",
  "4374": " marriage",
  "4375": " management",
  "4376": " Windows",
  "4377": " thus",
  "4378": " limit",
  "4379": " born",
  "4380": "32",
  "4381": " becoming",
  "4382": "known",
  "4383": " photo",
  "4384": " easier",
  "4385": "FC",
  "4386": " Great",
  "4387": " rat",
  "4388": " legislation",
  "4389": " controvers",
  "4390": " unlike",
  "4391": " electric",
  "4392": " Many",
  "4393": " camera",
  "4394": "witch",
  "4395": " accused",
  "4396": " spl",
  "4397": " neighbor",
  "4398": " double",
  "4399": " ice",
  "4400": " species",
  "4401": "lant",
  "4402": " shared",
  "4403": " join",
  "4404": " illegal",
  "4405": " 31",
  "4406": " Lab",
  "4407": " 2006",
  "4408": "Mr",
  "4409": " harm",
  "4410": " machine",
  "4411": " served",
  "4412": " Jer",
  "4413": "GB",
  "4414": " extremely",
  "4415": "olf",
  "4416": " active",
  "4417": " 35",
  "4418": " serve",
  "4419": " documents",
  "4420": " Islamic",
  "4421": " frame",
  "4422": "za",
  "4423": " strik",
  "4424": "level",
  "4425": " Dist",
  "4426": " audience",
  "4427": "BS",
  "4428": " location",
  "4429": " AM",
  "4430": " scientists",
  "4431": " bottom",
  "4432": " victims",
  "4433": " Art",
  "4434": "orrow",
  "4435": " wealth",
  "4436": " professional",
  "4437": " resist",
  "4438": "ih",
  "4439": " reduce",
  "4440": " belief",
  "4441": " nine",
  "4442": " solid",
  "4443": " winning",
  "4444": " marijuana",
  "4445": "ears",
  "4446": " Uk",
  "4447": " negative",
  "4448": "75",
  "4449": "iful",
  "4450": " communities",
  "4451": " returned",
  "4452": "ortunately",
  "4453": " bed",
  "4454": " incred",
  "4455": " PM",
  "4456": " Institute",
  "4457": "met",
  "4458": "tered",
  "4459": " church",
  "4460": "PS",
  "4461": " department",
  "4462": "irgin",
  "4463": " Sanders",
  "4464": " ran",
  "4465": " victory",
  "4466": "rey",
  "4467": " purpose",
  "4468": " 90",
  "4469": " Commun",
  "4470": " amb",
  "4471": "lands",
  "4472": " vehicle",
  "4473": " internet",
  "4474": " leadership",
  "4475": "ios",
  "4476": " Hall",
  "4477": "istics",
  "4478": " bomb",
  "4479": " mobile",
  "4480": "ghan",
  "4481": " instance",
  "4482": "ipped",
  "4483": "38",
  "4484": " separate",
  "4485": " existing",
  "4486": " notice",
  "4487": " hearing",
  "4488": " die",
  "4489": " explain",
  "4490": " doubt",
  "4491": " faith",
  "4492": " teach",
  "4493": "house",
  "4494": " Your",
  "4495": "atically",
  "4496": " episode",
  "4497": " watching",
  "4498": " comfort",
  "4499": " Canadian",
  "4500": " Bank",
  "4501": " notes",
  "4502": " radio",
  "4503": " Ev",
  "4504": " fresh",
  "4505": " Fin",
  "4506": " unc",
  "4507": " views",
  "4508": " Inc",
  "4509": " putting",
  "4510": "asy",
  "4511": " supporters",
  "4512": " conservative",
  "4513": " purs",
  "4514": " argument",
  "4515": "omas",
  "4516": " micro",
  "4517": "ario",
  "4518": "acity",
  "4519": " launched",
  "4520": "scrib",
  "4521": "works",
  "4522": "OL",
  "4523": " appeal",
  "4524": "iliar",
  "4525": " items",
  "4526": " committee",
  "4527": "resp",
  "4528": " Mad",
  "4529": "which",
  "4530": " definitely",
  "4531": " dangerous",
  "4532": "iller",
  "4533": "PA",
  "4534": "zen",
  "4535": " coverage",
  "4536": " direction",
  "4537": " Over",
  "4538": " charged",
  "4539": " floor",
  "4540": " sun",
  "4541": " max",
  "4542": "ography",
  "4543": "34",
  "4544": "EM",
  "4545": " Carol",
  "4546": " Church",
  "4547": " Fox",
  "4548": " issued",
  "4549": " drugs",
  "4550": "Image",
  "4551": "ipp",
  "4552": " task",
  "4553": " background",
  "4554": " competition",
  "4555": " trend",
  "4556": " stated",
  "4557": "vention",
  "4558": "andom",
  "4559": "ada",
  "4560": " traffic",
  "4561": " FBI",
  "4562": " commercial",
  "4563": " Direct",
  "4564": "urb",
  "4565": "itt",
  "4566": "NA",
  "4567": " spoke",
  "4568": " sett",
  "4569": "inct",
  "4570": " transfer",
  "4571": " suggested",
  "4572": " structure",
  "4573": " sites",
  "4574": " hus",
  "4575": " north",
  "4576": " Since",
  "4577": " Like",
  "4578": " restaur",
  "4579": "ampionship",
  "4580": " labor",
  "4581": " decade",
  "4582": " repeated",
  "4583": " Game",
  "4584": " react",
  "4585": "oman",
  "4586": " cards",
  "4587": " animals",
  "4588": "going",
  "4589": " novel",
  "4590": "ctors",
  "4591": "but",
  "4592": "ribute",
  "4593": " daughter",
  "4594": "anted",
  "4595": " Sl",
  "4596": " driving",
  "4597": " closed",
  "4598": " worst",
  "4599": " contain",
  "4600": " entirely",
  "4601": " ded",
  "4602": " Britain",
  "4603": "ady",
  "4604": "gency",
  "4605": " driver",
  "4606": " Wil",
  "4607": " disease",
  "4608": " telling",
  "4609": "iling",
  "4610": " smaller",
  "4611": " discovered",
  "4612": " nor",
  "4613": "Bl",
  "4614": "akistan",
  "4615": " refere",
  "4616": " Pri",
  "4617": "Americ",
  "4618": " Los",
  "4619": "ius",
  "4620": " hack",
  "4621": "hem",
  "4622": "equ",
  "4623": "!â",
  "4624": "ference",
  "4625": " Que",
  "4626": "spe",
  "4627": " false",
  "4628": " cash",
  "4629": " concerned",
  "4630": "ulf",
  "4631": " plays",
  "4632": " surface",
  "4633": "semb",
  "4634": " supported",
  "4635": "annel",
  "4636": "ulated",
  "4637": " tools",
  "4638": "oyal",
  "4639": " compar",
  "4640": " transport",
  "4641": " Chris",
  "4642": " experiment",
  "4643": " finding",
  "4644": "night",
  "4645": " categ",
  "4646": "ã",
  "4647": " aspect",
  "4648": "##",
  "4649": " businesses",
  "4650": " 70",
  "4651": " UN",
  "4652": "ait",
  "4653": " farm",
  "4654": " please",
  "4655": " older",
  "4656": "azon",
  "4657": "how",
  "4658": " activities",
  "4659": " requires",
  "4660": "phone",
  "4661": "CH",
  "4662": " gay",
  "4663": " Jones",
  "4664": "do",
  "4665": "ibrary",
  "4666": " strength",
  "4667": "48",
  "4668": " wel",
  "4669": "andon",
  "4670": " insurance",
  "4671": " consequ",
  "4672": "37",
  "4673": " largely",
  "4674": " murder",
  "4675": "NN",
  "4676": "ici",
  "4677": "55",
  "4678": " exerc",
  "4679": " caught",
  "4680": " candidates",
  "4681": "kins",
  "4682": " Israeli",
  "4683": " allowing",
  "4684": "icy",
  "4685": " blue",
  "4686": " Are",
  "4687": " annual",
  "4688": " Ken",
  "4689": " Tre",
  "4690": " testing",
  "4691": "ossible",
  "4692": " strateg",
  "4693": " Sup",
  "4694": " raise",
  "4695": " stock",
  "4696": "arant",
  "4697": "overy",
  "4698": " Robert",
  "4699": "izes",
  "4700": " decisions",
  "4701": " accur",
  "4702": "rick",
  "4703": " context",
  "4704": " fuel",
  "4705": " Ac",
  "4706": "SP",
  "4707": "lor",
  "4708": "osure",
  "4709": " Ukrain",
  "4710": " concern",
  "4711": " afford",
  "4712": " believes",
  "4713": " construction",
  "4714": " truly",
  "4715": "****",
  "4716": " Ty",
  "4717": " Miss",
  "4718": " ge",
  "4719": " justice",
  "4720": "igrants",
  "4721": " generation",
  "4722": " highlight",
  "4723": " unit",
  "4724": "rim",
  "4725": " presence",
  "4726": " Jewish",
  "4727": "anging",
  "4728": "!!",
  "4729": " Sil",
  "4730": "Ð°",
  "4731": "tery",
  "4732": "Ðµ",
  "4733": "ception",
  "4734": " Africa",
  "4735": " guess",
  "4736": "ancy",
  "4737": " witness",
  "4738": "itable",
  "4739": " holding",
  "4740": " Gree",
  "4741": " establish",
  "4742": " length",
  "4743": " planning",
  "4744": "bre",
  "4745": "ava",
  "4746": " African",
  "4747": " sequ",
  "4748": "cknow",
  "4749": " refuge",
  "4750": " placed",
  "4751": " catch",
  "4752": " Afghan",
  "4753": " san",
  "4754": "inter",
  "4755": " Association",
  "4756": " tells",
  "4757": "â",
  "4758": " scale",
  "4759": "ey",
  "4760": " spokesman",
  "4761": " tim",
  "4762": "nel",
  "4763": " rough",
  "4764": " attend",
  "4765": "olly",
  "4766": " Ver",
  "4767": " cells",
  "4768": " joined",
  "4769": " Pre",
  "4770": " mentioned",
  "4771": " interests",
  "4772": " abuse",
  "4773": "pective",
  "4774": " Jim",
  "4775": "More",
  "4776": " hasn",
  "4777": " PC",
  "4778": "Le",
  "4779": " initi",
  "4780": " enforcement",
  "4781": " kid",
  "4782": " GOP",
  "4783": " introduced",
  "4784": " deliver",
  "4785": " conflict",
  "4786": " Mer",
  "4787": " Microsoft",
  "4788": " phil",
  "4789": "ââ",
  "4790": " update",
  "4791": " missing",
  "4792": "ros",
  "4793": " providing",
  "4794": " waiting",
  "4795": " cancer",
  "4796": "39",
  "4797": " recommend",
  "4798": "ocracy",
  "4799": " established",
  "4800": "isation",
  "4801": " eat",
  "4802": "bour",
  "4803": " Yes",
  "4804": " occup",
  "4805": " Frank",
  "4806": " Jeff",
  "4807": " Angeles",
  "4808": " removed",
  "4809": " 2005",
  "4810": "ula",
  "4811": " offensive",
  "4812": " Fore",
  "4813": " Instead",
  "4814": "icon",
  "4815": " injury",
  "4816": " sports",
  "4817": "47",
  "4818": " fant",
  "4819": " discussion",
  "4820": "vant",
  "4821": " operation",
  "4822": " download",
  "4823": " useful",
  "4824": " newsp",
  "4825": " conversation",
  "4826": " homes",
  "4827": "ronic",
  "4828": " south",
  "4829": " cook",
  "4830": " CEO",
  "4831": " assess",
  "4832": " Group",
  "4833": "itz",
  "4834": "formation",
  "4835": "lig",
  "4836": " banks",
  "4837": "onto",
  "4838": " stopped",
  "4839": " Step",
  "4840": " Const",
  "4841": " obvious",
  "4842": "ications",
  "4843": " measures",
  "4844": " models",
  "4845": " Kh",
  "4846": " fourth",
  "4847": " MP",
  "4848": "Our",
  "4849": "season",
  "4850": "DA",
  "4851": "what",
  "4852": " bul",
  "4853": "anda",
  "4854": " 2018",
  "4855": " files",
  "4856": " girls",
  "4857": " Louis",
  "4858": " stick",
  "4859": "cks",
  "4860": "azine",
  "4861": "mail",
  "4862": "umn",
  "4863": " managed",
  "4864": "iter",
  "4865": "apped",
  "4866": " Palestin",
  "4867": "oted",
  "4868": " figures",
  "4869": "oms",
  "4870": " Tim",
  "4871": " Leg",
  "4872": " identified",
  "4873": " graph",
  "4874": " Jud",
  "4875": " Sal",
  "4876": " finished",
  "4877": " funds",
  "4878": "Pl",
  "4879": " Pakistan",
  "4880": "real",
  "4881": " setting",
  "4882": " conclud",
  "4883": " prefer",
  "4884": " hair",
  "4885": " committed",
  "4886": " Mexico",
  "4887": "49",
  "4888": " skills",
  "4889": "kin",
  "4890": " appropri",
  "4891": " spirit",
  "4892": " Rock",
  "4893": " veter",
  "4894": " focused",
  "4895": " arrived",
  "4896": " THE",
  "4897": " housing",
  "4898": " Virgin",
  "4899": " keeping",
  "4900": " therefore",
  "4901": " acknow",
  "4902": " detect",
  "4903": "ulate",
  "4904": "Des",
  "4905": " partner",
  "4906": " exclus",
  "4907": "igan",
  "4908": " Android",
  "4909": "enses",
  "4910": "ups",
  "4911": " earth",
  "4912": " transl",
  "4913": "outs",
  "4914": "place",
  "4915": " tough",
  "4916": " Japanese",
  "4917": " 2000",
  "4918": " relatively",
  "4919": "Ã¡",
  "4920": " Supreme",
  "4921": "owl",
  "4922": "wing",
  "4923": " identity",
  "4924": " feels",
  "4925": "rd",
  "4926": " Met",
  "4927": " otherwise",
  "4928": " survey",
  "4929": "RA",
  "4930": " Ryan",
  "4931": "ocal",
  "4932": "ication",
  "4933": "itutional",
  "4934": " protection",
  "4935": "agn",
  "4936": " exchange",
  "4937": " owner",
  "4938": "isf",
  "4939": "Trump",
  "4940": " steps",
  "4941": " Inter",
  "4942": " trip",
  "4943": "imb",
  "4944": " husband",
  "4945": " Mont",
  "4946": " tweet",
  "4947": " connection",
  "4948": " Army",
  "4949": " slightly",
  "4950": " Prof",
  "4951": "eah",
  "4952": "ka",
  "4953": " weak",
  "4954": " Government",
  "4955": "verse",
  "4956": "\":",
  "4957": " circum",
  "4958": " elements",
  "4959": " click",
  "4960": " Richard",
  "4961": " strike",
  "4962": " photos",
  "4963": "ga",
  "4964": " mere",
  "4965": " defensive",
  "4966": "dden",
  "4967": "gar",
  "4968": " gain",
  "4969": " fle",
  "4970": " depend",
  "4971": "ucky",
  "4972": " collection",
  "4973": "onym",
  "4974": "hens",
  "4975": " killing",
  "4976": " roll",
  "4977": "ighter",
  "4978": "Go",
  "4979": " corner",
  "4980": " Martin",
  "4981": "ancing",
  "4982": "odies",
  "4983": " suggests",
  "4984": "uct",
  "4985": " aggress",
  "4986": "with",
  "4987": "prof",
  "4988": " guard",
  "4989": "Photo",
  "4990": " gender",
  "4991": "makers",
  "4992": " College",
  "4993": " commission",
  "4994": " Although",
  "4995": "range",
  "4996": " dat",
  "4997": " Sur",
  "4998": "46",
  "4999": " Ir",
  "5000": " Dec",
  "5001": " mental",
  "5002": "icide",
  "5003": " amazing",
  "5004": "rees",
  "5005": " Sub",
  "5006": "hi",
  "5007": " planet",
  "5008": " Team",
  "5009": "rency",
  "5010": " Out",
  "5011": " bigger",
  "5012": " failure",
  "5013": "ym",
  "5014": " Jose",
  "5015": " supply",
  "5016": "Why",
  "5017": "ania",
  "5018": " Nor",
  "5019": " starts",
  "5020": "gers",
  "5021": " sides",
  "5022": "hedul",
  "5023": "iser",
  "5024": " familiar",
  "5025": " remind",
  "5026": " sust",
  "5027": " spect",
  "5028": "ils",
  "5029": "uate",
  "5030": " speaking",
  "5031": "ano",
  "5032": " talks",
  "5033": " happening",
  "5034": "mas",
  "5035": "gypt",
  "5036": " organizations",
  "5037": " hate",
  "5038": " window",
  "5039": " army",
  "5040": " Good",
  "5041": " Joe",
  "5042": " none",
  "5043": "uke",
  "5044": " taxes",
  "5045": " planned",
  "5046": " Pet",
  "5047": " thanks",
  "5048": " Mary",
  "5049": " struct",
  "5050": " pit",
  "5051": " decide",
  "5052": " sudden",
  "5053": " wish",
  "5054": "lo",
  "5055": " crew",
  "5056": " carried",
  "5057": " appoint",
  "5058": "oston",
  "5059": " pet",
  "5060": "awn",
  "5061": "eless",
  "5062": "agues",
  "5063": "ynam",
  "5064": " regist",
  "5065": "TC",
  "5066": " multi",
  "5067": "idering",
  "5068": " helping",
  "5069": "Last",
  "5070": " award",
  "5071": " standards",
  "5072": " 32",
  "5073": " Fire",
  "5074": " revolution",
  "5075": " environmental",
  "5076": "].",
  "5077": " Web",
  "5078": "arsh",
  "5079": " Thomas",
  "5080": "olit",
  "5081": " script",
  "5082": "pm",
  "5083": "ola",
  "5084": " seconds",
  "5085": "gn",
  "5086": "run",
  "5087": " Research",
  "5088": " scientific",
  "5089": " Bern",
  "5090": " immigration",
  "5091": " standing",
  "5092": " Their",
  "5093": " 45",
  "5094": "stream",
  "5095": "ocol",
  "5096": " que",
  "5097": " beer",
  "5098": " domestic",
  "5099": "imal",
  "5100": "adium",
  "5101": " pair",
  "5102": "uters",
  "5103": " Also",
  "5104": " Secretary",
  "5105": " Us",
  "5106": " academ",
  "5107": " cold",
  "5108": " variety",
  "5109": " markets",
  "5110": " sch",
  "5111": "fe",
  "5112": "HL",
  "5113": " territ",
  "5114": " dropped",
  "5115": " accounts",
  "5116": "!\"",
  "5117": " Atlant",
  "5118": " filed",
  "5119": "erous",
  "5120": "acks",
  "5121": "illa",
  "5122": " balance",
  "5123": " impossible",
  "5124": " Ter",
  "5125": "aven",
  "5126": " interact",
  "5127": " neighborhood",
  "5128": " degree",
  "5129": "Read",
  "5130": " turns",
  "5131": "ores",
  "5132": "itect",
  "5133": " possibly",
  "5134": " appre",
  "5135": " operating",
  "5136": " princ",
  "5137": " alternative",
  "5138": " union",
  "5139": " votes",
  "5140": " vul",
  "5141": "ader",
  "5142": " professor",
  "5143": " tack",
  "5144": " Service",
  "5145": " increasingly",
  "5146": "ayer",
  "5147": "ruit",
  "5148": " apply",
  "5149": " fellow",
  "5150": " cuts",
  "5151": "stein",
  "5152": " honest",
  "5153": " Prime",
  "5154": " univers",
  "5155": " server",
  "5156": "vis",
  "5157": " developers",
  "5158": "arks",
  "5159": " Syrian",
  "5160": " apparently",
  "5161": "abb",
  "5162": "aren",
  "5163": " lived",
  "5164": " changing",
  "5165": " worry",
  "5166": "rastructure",
  "5167": " Carolina",
  "5168": " tests",
  "5169": " units",
  "5170": " rich",
  "5171": " Two",
  "5172": "cious",
  "5173": "icted",
  "5174": "From",
  "5175": "aded",
  "5176": " humans",
  "5177": "IM",
  "5178": " Foundation",
  "5179": " Mos",
  "5180": " agencies",
  "5181": " sounds",
  "5182": "ashed",
  "5183": " twice",
  "5184": " ultimately",
  "5185": "obby",
  "5186": " losing",
  "5187": " philos",
  "5188": " authority",
  "5189": " soldiers",
  "5190": "ã",
  "5191": " animal",
  "5192": "gu",
  "5193": " Images",
  "5194": " settle",
  "5195": " ath",
  "5196": " schedul",
  "5197": " mut",
  "5198": " colle",
  "5199": " corporate",
  "5200": " absolutely",
  "5201": " healthy",
  "5202": " paying",
  "5203": "och",
  "5204": " equip",
  "5205": "iams",
  "5206": " developing",
  "5207": " sea",
  "5208": " Time",
  "5209": " closer",
  "5210": " Den",
  "5211": " innov",
  "5212": "related",
  "5213": " seeking",
  "5214": " regarding",
  "5215": "coh",
  "5216": "roud",
  "5217": " skin",
  "5218": " expensive",
  "5219": "ansion",
  "5220": " possibility",
  "5221": " beautiful",
  "5222": " religion",
  "5223": " apart",
  "5224": " Central",
  "5225": " fundament",
  "5226": " experts",
  "5227": " solar",
  "5228": "65",
  "5229": " yards",
  "5230": " vast",
  "5231": " writer",
  "5232": " flight",
  "5233": " District",
  "5234": " Last",
  "5235": " deploy",
  "5236": " adjust",
  "5237": "Of",
  "5238": " internal",
  "5239": " tast",
  "5240": " Under",
  "5241": " Lat",
  "5242": "31",
  "5243": " Peter",
  "5244": "apers",
  "5245": " imagine",
  "5246": " Jon",
  "5247": "IV",
  "5248": " applications",
  "5249": "iot",
  "5250": "ologies",
  "5251": " vision",
  "5252": "look",
  "5253": "state",
  "5254": "osen",
  "5255": " Francisco",
  "5256": " Toronto",
  "5257": "den",
  "5258": " sitting",
  "5259": " Plan",
  "5260": " trail",
  "5261": " unless",
  "5262": " USA",
  "5263": " Jes",
  "5264": "isted",
  "5265": " heat",
  "5266": " 2004",
  "5267": "Even",
  "5268": " responsibility",
  "5269": " capacity",
  "5270": "IP",
  "5271": "atures",
  "5272": " Middle",
  "5273": " error",
  "5274": "aine",
  "5275": "ias",
  "5276": " symb",
  "5277": " fol",
  "5278": " arms",
  "5279": " pil",
  "5280": " gar",
  "5281": "pire",
  "5282": " covered",
  "5283": "idden",
  "5284": " Bur",
  "5285": " famous",
  "5286": " Camp",
  "5287": " forms",
  "5288": "uzz",
  "5289": "ND",
  "5290": " university",
  "5291": " guarant",
  "5292": " tight",
  "5293": " presented",
  "5294": "ortion",
  "5295": "oving",
  "5296": "enced",
  "5297": " ST",
  "5298": " Egypt",
  "5299": " earn",
  "5300": " Put",
  "5301": " convention",
  "5302": "under",
  "5303": "Just",
  "5304": " Public",
  "5305": " surprise",
  "5306": " attorney",
  "5307": " elections",
  "5308": " estimated",
  "5309": " fif",
  "5310": " Ari",
  "5311": " teen",
  "5312": " instit",
  "5313": " vehicles",
  "5314": "rible",
  "5315": " Amazon",
  "5316": "road",
  "5317": " intended",
  "5318": " rid",
  "5319": " odd",
  "5320": " helps",
  "5321": " occurred",
  "5322": "person",
  "5323": " streets",
  "5324": "uster",
  "5325": "hand",
  "5326": "ini",
  "5327": " Boston",
  "5328": " Sol",
  "5329": " =>",
  "5330": "=\"",
  "5331": " Mur",
  "5332": " sport",
  "5333": "sen",
  "5334": " determine",
  "5335": "ressive",
  "5336": " Bitcoin",
  "5337": " expert",
  "5338": "alls",
  "5339": " consult",
  "5340": "uration",
  "5341": " broken",
  "5342": "Let",
  "5343": "lets",
  "5344": " fired",
  "5345": " ton",
  "5346": " flow",
  "5347": " domin",
  "5348": " Gal",
  "5349": "porary",
  "5350": "eder",
  "5351": "LE",
  "5352": " shall",
  "5353": " reserv",
  "5354": "Up",
  "5355": " troops",
  "5356": "ION",
  "5357": " Those",
  "5358": " hyp",
  "5359": " nar",
  "5360": "terday",
  "5361": " pieces",
  "5362": " Chief",
  "5363": " prepared",
  "5364": " Mass",
  "5365": " Cath",
  "5366": " rapid",
  "5367": "gl",
  "5368": "orage",
  "5369": " Jo",
  "5370": " located",
  "5371": " Social",
  "5372": " baby",
  "5373": "----------------",
  "5374": " conclus",
  "5375": " bringing",
  "5376": "anche",
  "5377": " Prot",
  "5378": " prove",
  "5379": " specifically",
  "5380": " Any",
  "5381": " potentially",
  "5382": " sector",
  "5383": " random",
  "5384": " jail",
  "5385": "OW",
  "5386": " selling",
  "5387": " governments",
  "5388": " Once",
  "5389": " scr",
  "5390": "Ab",
  "5391": " equal",
  "5392": "class",
  "5393": "war",
  "5394": " faster",
  "5395": " heav",
  "5396": " Spr",
  "5397": " boost",
  "5398": "useum",
  "5399": "vey",
  "5400": " clin",
  "5401": " proposal",
  "5402": "oty",
  "5403": " factors",
  "5404": " plenty",
  "5405": "TH",
  "5406": " equipment",
  "5407": " council",
  "5408": " era",
  "5409": " infrastructure",
  "5410": "Do",
  "5411": " stress",
  "5412": "phas",
  "5413": " stars",
  "5414": " Journal",
  "5415": " Rub",
  "5416": "endment",
  "5417": " Virginia",
  "5418": " breat",
  "5419": " prosecut",
  "5420": " voted",
  "5421": " offering",
  "5422": " carbon",
  "5423": "inent",
  "5424": " expressed",
  "5425": " vulner",
  "5426": " combat",
  "5427": " Paris",
  "5428": " broke",
  "5429": "()",
  "5430": "ureau",
  "5431": " clot",
  "5432": "ours",
  "5433": " ruling",
  "5434": " Federal",
  "5435": " retail",
  "5436": " Guard",
  "5437": " refused",
  "5438": " dram",
  "5439": " Dan",
  "5440": " elected",
  "5441": " Open",
  "5442": " River",
  "5443": "Every",
  "5444": " secure",
  "5445": "cean",
  "5446": " seasons",
  "5447": " conducted",
  "5448": ",'",
  "5449": "ht",
  "5450": " challenges",
  "5451": " remove",
  "5452": "isher",
  "5453": " Sant",
  "5454": " methods",
  "5455": " weapon",
  "5456": "noon",
  "5457": " pointed",
  "5458": " Island",
  "5459": " master",
  "5460": " remained",
  "5461": " Australian",
  "5462": " prime",
  "5463": "ENT",
  "5464": " trig",
  "5465": " positions",
  "5466": " Cru",
  "5467": " din",
  "5468": " Mel",
  "5469": " criticism",
  "5470": "ipping",
  "5471": "First",
  "5472": "ocking",
  "5473": " Medic",
  "5474": " Please",
  "5475": "rog",
  "5476": "onom",
  "5477": "IG",
  "5478": " sale",
  "5479": "olved",
  "5480": " Fe",
  "5481": " cultural",
  "5482": "that",
  "5483": " weren",
  "5484": " significantly",
  "5485": " brow",
  "5486": "etic",
  "5487": " originally",
  "5488": "rie",
  "5489": " During",
  "5490": " affected",
  "5491": " appearance",
  "5492": " cas",
  "5493": " tourn",
  "5494": " facing",
  "5495": " greatest",
  "5496": " finish",
  "5497": " Lee",
  "5498": " stret",
  "5499": "yr",
  "5500": " youth",
  "5501": " tele",
  "5502": " Who",
  "5503": " Cur",
  "5504": " percentage",
  "5505": " Photo",
  "5506": "col",
  "5507": " determined",
  "5508": " signs",
  "5509": " involve",
  "5510": "95",
  "5511": "cel",
  "5512": "Ð¸",
  "5513": "64",
  "5514": " thank",
  "5515": " bought",
  "5516": " 500",
  "5517": "lyn",
  "5518": " Sing",
  "5519": "standing",
  "5520": " chemical",
  "5521": "ashion",
  "5522": " shape",
  "5523": " vir",
  "5524": " regime",
  "5525": " grew",
  "5526": "pired",
  "5527": " remaining",
  "5528": " Steve",
  "5529": "lymp",
  "5530": " minimum",
  "5531": " Saud",
  "5532": "reens",
  "5533": " indeed",
  "5534": " dream",
  "5535": "rier",
  "5536": "Since",
  "5537": " marg",
  "5538": "Sp",
  "5539": " Both",
  "5540": ">>",
  "5541": " mode",
  "5542": " herself",
  "5543": " voting",
  "5544": " Color",
  "5545": " obviously",
  "5546": " Force",
  "5547": " reduced",
  "5548": "ordin",
  "5549": " Nov",
  "5550": " wood",
  "5551": " Rem",
  "5552": " recorded",
  "5553": " argued",
  "5554": " 1990",
  "5555": " revenue",
  "5556": " tact",
  "5557": " Ro",
  "5558": " wearing",
  "5559": "aling",
  "5560": "ighters",
  "5561": " leads",
  "5562": "edia",
  "5563": " hun",
  "5564": " politicians",
  "5565": " plus",
  "5566": " contrast",
  "5567": " switch",
  "5568": " handle",
  "5569": " purchase",
  "5570": " thr",
  "5571": " subs",
  "5572": " concent",
  "5573": " proced",
  "5574": "Ñ",
  "5575": " agent",
  "5576": "arp",
  "5577": " Williams",
  "5578": " appreci",
  "5579": " experienced",
  "5580": " hurt",
  "5581": "top",
  "5582": " excited",
  "5583": " videos",
  "5584": " https",
  "5585": "cohol",
  "5586": " supporting",
  "5587": "DP",
  "5588": " Haw",
  "5589": "mm",
  "5590": "ownt",
  "5591": " Free",
  "5592": " surprising",
  "5593": " minute",
  "5594": "odd",
  "5595": " explos",
  "5596": " belong",
  "5597": " consumers",
  "5598": " identify",
  "5599": " considering",
  "5600": " Pac",
  "5601": " Conserv",
  "5602": "ller",
  "5603": "apter",
  "5604": " aircraft",
  "5605": " rent",
  "5606": " aid",
  "5607": "CL",
  "5608": " pulled",
  "5609": "gment",
  "5610": " basically",
  "5611": " differences",
  "5612": "ogue",
  "5613": " Book",
  "5614": " glass",
  "5615": " afternoon",
  "5616": " shift",
  "5617": " diss",
  "5618": " Rad",
  "5619": " depart",
  "5620": " ends",
  "5621": "essions",
  "5622": " turning",
  "5623": " bound",
  "5624": " films",
  "5625": " spring",
  "5626": " prospect",
  "5627": "ruption",
  "5628": "ket",
  "5629": " Charl",
  "5630": "hab",
  "5631": " mort",
  "5632": "05",
  "5633": "life",
  "5634": " treated",
  "5635": " accident",
  "5636": ",[",
  "5637": "01",
  "5638": " motiv",
  "5639": " listen",
  "5640": " seat",
  "5641": " Power",
  "5642": "uts",
  "5643": " combined",
  "5644": " construct",
  "5645": "Ind",
  "5646": " seriously",
  "5647": " privacy",
  "5648": "apping",
  "5649": " evening",
  "5650": "hered",
  "5651": "hy",
  "5652": " opportunities",
  "5653": "asp",
  "5654": " struggle",
  "5655": " 195",
  "5656": " panel",
  "5657": " enemy",
  "5658": " lots",
  "5659": " completed",
  "5660": " Daily",
  "5661": " visual",
  "5662": "His",
  "5663": "Phone",
  "5664": "pet",
  "5665": " talked",
  "5666": " cart",
  "5667": " hopes",
  "5668": "oral",
  "5669": " passing",
  "5670": " id",
  "5671": " apps",
  "5672": "osite",
  "5673": "PD",
  "5674": " calcul",
  "5675": "Another",
  "5676": " widely",
  "5677": "ensions",
  "5678": " emergency",
  "5679": " Hol",
  "5680": " Show",
  "5681": " suit",
  "5682": " element",
  "5683": "amm",
  "5684": " ast",
  "5685": "anged",
  "5686": "SS",
  "5687": "aled",
  "5688": "ucks",
  "5689": " powers",
  "5690": "ato",
  "5691": " Rel",
  "5692": " BBC",
  "5693": " Olymp",
  "5694": " burn",
  "5695": "TV",
  "5696": " discl",
  "5697": "Pe",
  "5698": " plants",
  "5699": " flat",
  "5700": " Space",
  "5701": " liberal",
  "5702": "raud",
  "5703": "obe",
  "5704": " opposed",
  "5705": "Well",
  "5706": " proceed",
  "5707": "ompl",
  "5708": " copyright",
  "5709": "oking",
  "5710": " Project",
  "5711": " advance",
  "5712": " factor",
  "5713": " distance",
  "5714": " 2003",
  "5715": "ivered",
  "5716": " dismiss",
  "5717": "plom",
  "5718": " attempts",
  "5719": " tun",
  "5720": " Matt",
  "5721": " Road",
  "5722": "abilities",
  "5723": "Am",
  "5724": "ributed",
  "5725": " IN",
  "5726": " trouble",
  "5727": "unction",
  "5728": " hol",
  "5729": " collabor",
  "5730": " default",
  "5731": "sts",
  "5732": "idel",
  "5733": " Bet",
  "5734": " zone",
  "5735": " Jackson",
  "5736": " upgr",
  "5737": "rawn",
  "5738": "ita",
  "5739": "Cont",
  "5740": " reaction",
  "5741": " storm",
  "5742": " reporters",
  "5743": " Mem",
  "5744": " frust",
  "5745": "PR",
  "5746": "nell",
  "5747": "mosp",
  "5748": "adow",
  "5749": " writes",
  "5750": "mond",
  "5751": "aints",
  "5752": " typically",
  "5753": " Today",
  "5754": "lines",
  "5755": "respond",
  "5756": "UT",
  "5757": " pages",
  "5758": " instruct",
  "5759": "ternal",
  "5760": "eds",
  "5761": " reference",
  "5762": " package",
  "5763": " bodies",
  "5764": "zer",
  "5765": " matters",
  "5766": "free",
  "5767": "42",
  "5768": " denied",
  "5769": "care",
  "5770": "edd",
  "5771": "App",
  "5772": " quant",
  "5773": " disappoint",
  "5774": " sem",
  "5775": " explo",
  "5776": " NAS",
  "5777": " optim",
  "5778": "ache",
  "5779": " quiet",
  "5780": " entertain",
  "5781": " mal",
  "5782": " responded",
  "5783": " approved",
  "5784": " Turkey",
  "5785": " satisf",
  "5786": "aped",
  "5787": " broadcast",
  "5788": "esters",
  "5789": " institutions",
  "5790": " advert",
  "5791": " stands",
  "5792": " Director",
  "5793": " sets",
  "5794": "estival",
  "5795": " elimin",
  "5796": "isters",
  "5797": "razy",
  "5798": "Ã¤",
  "5799": "Rep",
  "5800": " Penn",
  "5801": " valid",
  "5802": "host",
  "5803": " renew",
  "5804": " Ohio",
  "5805": "elly",
  "5806": "0000",
  "5807": " split",
  "5808": " severe",
  "5809": " William",
  "5810": " sac",
  "5811": " capable",
  "5812": " 2001",
  "5813": " //",
  "5814": " pitch",
  "5815": "abin",
  "5816": "aniel",
  "5817": " caption",
  "5818": " cloud",
  "5819": " loved",
  "5820": " technical",
  "5821": " giant",
  "5822": "pass",
  "5823": " cann",
  "5824": " tradition",
  "5825": "rant",
  "5826": " prompt",
  "5827": " bull",
  "5828": " confident",
  "5829": "uous",
  "5830": " confidence",
  "5831": " numerous",
  "5832": " reportedly",
  "5833": " Ma",
  "5834": " faces",
  "5835": "],",
  "5836": "writ",
  "5837": " weather",
  "5838": " fly",
  "5839": " transition",
  "5840": "rid",
  "5841": " 36",
  "5842": " System",
  "5843": " Afghanistan",
  "5844": " gra",
  "5845": " Squ",
  "5846": " creation",
  "5847": "De",
  "5848": " perspective",
  "5849": " unable",
  "5850": " forget",
  "5851": " Labour",
  "5852": " Yet",
  "5853": "43",
  "5854": "astern",
  "5855": "employ",
  "5856": "oken",
  "5857": " Media",
  "5858": "angers",
  "5859": "II",
  "5860": "unte",
  "5861": " craft",
  "5862": " substant",
  "5863": " cooper",
  "5864": " violent",
  "5865": " suffered",
  "5866": "ilit",
  "5867": " coast",
  "5868": " mand",
  "5869": "ampion",
  "5870": " pictures",
  "5871": " experiences",
  "5872": " approx",
  "5873": "abled",
  "5874": " route",
  "5875": "88",
  "5876": "sex",
  "5877": " flag",
  "5878": " advice",
  "5879": " Andrew",
  "5880": "usiness",
  "5881": " declared",
  "5882": " Wal",
  "5883": " ordered",
  "5884": " Human",
  "5885": "razil",
  "5886": " crimes",
  "5887": " coff",
  "5888": "Se",
  "5889": " proud",
  "5890": "ishes",
  "5891": " reporting",
  "5892": " messages",
  "5893": " circumst",
  "5894": " findings",
  "5895": " Lin",
  "5896": "Res",
  "5897": " eval",
  "5898": "ulations",
  "5899": " excell",
  "5900": "Over",
  "5901": " declined",
  "5902": " explains",
  "5903": " delay",
  "5904": " \\",
  "5905": " Follow",
  "5906": " newspaper",
  "5907": "ounded",
  "5908": " connected",
  "5909": "ilty",
  "5910": " shouldn",
  "5911": "evin",
  "5912": "oves",
  "5913": " ongoing",
  "5914": "can",
  "5915": " van",
  "5916": "dule",
  "5917": " movies",
  "5918": " picked",
  "5919": "ionally",
  "5920": "resents",
  "5921": "77",
  "5922": " admitted",
  "5923": " delivered",
  "5924": "During",
  "5925": " guns",
  "5926": " ML",
  "5927": " Scot",
  "5928": " walking",
  "5929": " agents",
  "5930": "called",
  "5931": " prin",
  "5932": "tion",
  "5933": " editor",
  "5934": " thoughts",
  "5935": " married",
  "5936": " Tra",
  "5937": " auth",
  "5938": " emails",
  "5939": " appropriate",
  "5940": " emphas",
  "5941": "uations",
  "5942": " edge",
  "5943": " architect",
  "5944": " Grand",
  "5945": " leaves",
  "5946": " updates",
  "5947": " accompl",
  "5948": "OD",
  "5949": " gather",
  "5950": " Muslims",
  "5951": " forg",
  "5952": "ansas",
  "5953": " Wood",
  "5954": " quarterback",
  "5955": " session",
  "5956": "ooth",
  "5957": "41",
  "5958": " Techn",
  "5959": " pool",
  "5960": " Science",
  "5961": "cos",
  "5962": " injured",
  "5963": "arn",
  "5964": " publicly",
  "5965": "ellow",
  "5966": " Sov",
  "5967": " statements",
  "5968": " perman",
  "5969": " legit",
  "5970": "arl",
  "5971": "nergy",
  "5972": "MA",
  "5973": " confirm",
  "5974": " Lake",
  "5975": " ourselves",
  "5976": "Other",
  "5977": " realize",
  "5978": " rot",
  "5979": " drivers",
  "5980": " Av",
  "5981": " Dou",
  "5982": "TA",
  "5983": "mates",
  "5984": ",â",
  "5985": " armed",
  "5986": "essor",
  "5987": " dial",
  "5988": "cons",
  "5989": " lawyer",
  "5990": "ourney",
  "5991": " rail",
  "5992": " readers",
  "5993": "reland",
  "5994": " sad",
  "5995": " contains",
  "5996": " argue",
  "5997": " Rev",
  "5998": " talent",
  "5999": " filled",
  "6000": " Sum",
  "6001": " allegations",
  "6002": " activists",
  "6003": " Christmas",
  "6004": " dynam",
  "6005": " 1980",
  "6006": " Michigan",
  "6007": "date",
  "6008": " Back",
  "6009": " Ron",
  "6010": " crack",
  "6011": " transform",
  "6012": "Tube",
  "6013": " Ill",
  "6014": " buildings",
  "6015": " Read",
  "6016": "long",
  "6017": " wear",
  "6018": "Many",
  "6019": " terrorist",
  "6020": " sam",
  "6021": " tree",
  "6022": " exercise",
  "6023": "enda",
  "6024": " label",
  "6025": " effectively",
  "6026": "Oh",
  "6027": " practices",
  "6028": "ala",
  "6029": " subsequ",
  "6030": " Jul",
  "6031": " Sher",
  "6032": "uls",
  "6033": " flo",
  "6034": "TS",
  "6035": " fish",
  "6036": "ette",
  "6037": "enture",
  "6038": " shop",
  "6039": " examples",
  "6040": " Hy",
  "6041": " patient",
  "6042": " Gen",
  "6043": " Seattle",
  "6044": " objects",
  "6045": " tech",
  "6046": " See",
  "6047": " secretary",
  "6048": "asure",
  "6049": " rain",
  "6050": " missed",
  "6051": " causes",
  "6052": "illy",
  "6053": "rum",
  "6054": " debut",
  "6055": " Rod",
  "6056": "gia",
  "6057": " essentially",
  "6058": "66",
  "6059": "amin",
  "6060": " moral",
  "6061": "orders",
  "6062": "ador",
  "6063": "word",
  "6064": "acter",
  "6065": " Work",
  "6066": "def",
  "6067": "arters",
  "6068": " Ukraine",
  "6069": " centre",
  "6070": "Follow",
  "6071": " Vict",
  "6072": "bur",
  "6073": " Stan",
  "6074": " ID",
  "6075": "icing",
  "6076": " injuries",
  "6077": " Phot",
  "6078": " motor",
  "6079": " iPhone",
  "6080": " artist",
  "6081": " client",
  "6082": " bond",
  "6083": " thinks",
  "6084": "iat",
  "6085": "orse",
  "6086": "ouston",
  "6087": " pure",
  "6088": " hell",
  "6089": "Although",
  "6090": " Saudi",
  "6091": " facts",
  "6092": "¬",
  "6093": " desire",
  "6094": "agers",
  "6095": "aza",
  "6096": " ske",
  "6097": "orry",
  "6098": " linked",
  "6099": "Ã­",
  "6100": " governor",
  "6101": " materials",
  "6102": " performed",
  "6103": "Spe",
  "6104": " franch",
  "6105": "esome",
  "6106": " suc",
  "6107": " philosoph",
  "6108": " initially",
  "6109": "iest",
  "6110": " Sign",
  "6111": " necessarily",
  "6112": " Bat",
  "6113": " Fer",
  "6114": " expansion",
  "6115": " scheduled",
  "6116": "water",
  "6117": "ERS",
  "6118": " warned",
  "6119": " diplom",
  "6120": " advanced",
  "6121": " ing",
  "6122": " explan",
  "6123": " vari",
  "6124": " everybody",
  "6125": " joint",
  "6126": " decre",
  "6127": " resolution",
  "6128": " increases",
  "6129": "enger",
  "6130": "Yes",
  "6131": " accepted",
  "6132": " incor",
  "6133": " myster",
  "6134": " faced",
  "6135": " bare",
  "6136": "illance",
  "6137": " Mount",
  "6138": " announcement",
  "6139": " follows",
  "6140": " nations",
  "6141": " playoff",
  "6142": " Life",
  "6143": " abandon",
  "6144": " Second",
  "6145": " radical",
  "6146": " athlet",
  "6147": " neither",
  "6148": " yesterday",
  "6149": "gent",
  "6150": " datab",
  "6151": " nearby",
  "6152": " distribution",
  "6153": "otic",
  "6154": " applied",
  "6155": "irty",
  "6156": " magazine",
  "6157": "Most",
  "6158": "athan",
  "6159": "rich",
  "6160": " mir",
  "6161": " consequences",
  "6162": " doctor",
  "6163": " listed",
  "6164": " fort",
  "6165": "uy",
  "6166": " Columb",
  "6167": " atmosp",
  "6168": "American",
  "6169": " surprised",
  "6170": " offense",
  "6171": "Qu",
  "6172": "itors",
  "6173": " CNN",
  "6174": " RE",
  "6175": " spons",
  "6176": " begins",
  "6177": " Week",
  "6178": " threats",
  "6179": "sembly",
  "6180": " represents",
  "6181": " Jews",
  "6182": " GM",
  "6183": " Aff",
  "6184": " enh",
  "6185": " moves",
  "6186": " remark",
  "6187": " TO",
  "6188": " pra",
  "6189": " songs",
  "6190": "kay",
  "6191": " chart",
  "6192": " behavi",
  "6193": "omin",
  "6194": " ride",
  "6195": " adds",
  "6196": " withd",
  "6197": "Can",
  "6198": "Ã",
  "6199": " improved",
  "6200": " phen",
  "6201": " Blue",
  "6202": " bot",
  "6203": " warm",
  "6204": " af",
  "6205": " alcohol",
  "6206": "rip",
  "6207": " AT",
  "6208": " output",
  "6209": "law",
  "6210": " flood",
  "6211": " Develop",
  "6212": " Hen",
  "6213": "whel",
  "6214": "edy",
  "6215": " shots",
  "6216": " fill",
  "6217": " Vol",
  "6218": " alt",
  "6219": " stood",
  "6220": " brings",
  "6221": " pushed",
  "6222": " guilty",
  "6223": " Romney",
  "6224": " Kim",
  "6225": " subscrib",
  "6226": "85",
  "6227": " entry",
  "6228": "ocratic",
  "6229": " Brazil",
  "6230": " democracy",
  "6231": " boys",
  "6232": " 33",
  "6233": " row",
  "6234": " Swed",
  "6235": " config",
  "6236": " restaurant",
  "6237": " NBA",
  "6238": " lawsuit",
  "6239": " Dev",
  "6240": " Ireland",
  "6241": "acle",
  "6242": " manufacture",
  "6243": " receiving",
  "6244": " rein",
  "6245": " Barack",
  "6246": "Then",
  "6247": " trib",
  "6248": " totally",
  "6249": " Only",
  "6250": " discussed",
  "6251": " sought",
  "6252": " rising",
  "6253": " entered",
  "6254": " ISIS",
  "6255": " Board",
  "6256": " consistent",
  "6257": " historical",
  "6258": "twitter",
  "6259": "ideo",
  "6260": " storage",
  "6261": " correspond",
  "6262": " plane",
  "6263": " combination",
  "6264": " scored",
  "6265": " input",
  "6266": " 300",
  "6267": " symbol",
  "6268": " bright",
  "6269": " button",
  "6270": "irds",
  "6271": " succeed",
  "6272": "stood",
  "6273": " creative",
  "6274": " investors",
  "6275": " square",
  "6276": " articles",
  "6277": " 2002",
  "6278": " island",
  "6279": "mes",
  "6280": " deaths",
  "6281": " functions",
  "6282": " networks",
  "6283": " classes",
  "6284": " unlikely",
  "6285": "alty",
  "6286": " heads",
  "6287": "ician",
  "6288": " boss",
  "6289": " native",
  "6290": "icious",
  "6291": " lie",
  "6292": " sav",
  "6293": " Lib",
  "6294": " roughly",
  "6295": " consumer",
  "6296": " Str",
  "6297": " Whe",
  "6298": " Walk",
  "6299": " Prem",
  "6300": "fortunately",
  "6301": " Ms",
  "6302": " string",
  "6303": " Maybe",
  "6304": " heavily",
  "6305": " Another",
  "6306": " fairly",
  "6307": " temperature",
  "6308": "arden",
  "6309": " kit",
  "6310": " existence",
  "6311": " Its",
  "6312": " Asia",
  "6313": " contest",
  "6314": "Add",
  "6315": " plot",
  "6316": "issions",
  "6317": "dis",
  "6318": " Cub",
  "6319": " resident",
  "6320": "usal",
  "6321": " targets",
  "6322": " Bob",
  "6323": " resc",
  "6324": " Korean",
  "6325": "ican",
  "6326": "duc",
  "6327": " lock",
  "6328": " younger",
  "6329": "Man",
  "6330": "',",
  "6331": " colleagues",
  "6332": "PU",
  "6333": " library",
  "6334": "Ã¶",
  "6335": " rally",
  "6336": " parliament",
  "6337": " protests",
  "6338": " anywhere",
  "6339": "oked",
  "6340": " Sports",
  "6341": " Sky",
  "6342": " bike",
  "6343": "zona",
  "6344": " breaking",
  "6345": "ii",
  "6346": " grab",
  "6347": " sym",
  "6348": " stores",
  "6349": " expression",
  "6350": " waste",
  "6351": " chain",
  "6352": " blow",
  "6353": " warning",
  "6354": " importance",
  "6355": " defined",
  "6356": " buying",
  "6357": " manage",
  "6358": " prohib",
  "6359": " classic",
  "6360": " cere",
  "6361": " snow",
  "6362": " adults",
  "6363": " illust",
  "6364": " Each",
  "6365": "See",
  "6366": " marketing",
  "6367": "Ob",
  "6368": " links",
  "6369": "Ã³",
  "6370": "iques",
  "6371": " shif",
  "6372": "born",
  "6373": "andal",
  "6374": " Club",
  "6375": " tow",
  "6376": " Hist",
  "6377": " fraud",
  "6378": "OC",
  "6379": " facility",
  "6380": "ollywood",
  "6381": "erences",
  "6382": " hardware",
  "6383": " schol",
  "6384": " allegedly",
  "6385": " 37",
  "6386": " regulations",
  "6387": "pret",
  "6388": " doctors",
  "6389": " bon",
  "6390": " Colorado",
  "6391": " currency",
  "6392": " household",
  "6393": " replaced",
  "6394": "agan",
  "6395": " essential",
  "6396": "opy",
  "6397": " empt",
  "6398": "onna",
  "6399": " Ram",
  "6400": " somewhat",
  "6401": " Div",
  "6402": "press",
  "6403": "86",
  "6404": " nav",
  "6405": " favour",
  "6406": "power",
  "6407": " promise",
  "6408": " DC",
  "6409": " Boy",
  "6410": " laugh",
  "6411": "ena",
  "6412": "Pol",
  "6413": " Rights",
  "6414": " holds",
  "6415": " opposite",
  "6416": "ocket",
  "6417": "Ñ",
  "6418": " moments",
  "6419": "west",
  "6420": " hat",
  "6421": "tering",
  "6422": " opponent",
  "6423": " bug",
  "6424": " Far",
  "6425": "cho",
  "6426": " campus",
  "6427": " acts",
  "6428": " rum",
  "6429": "etroit",
  "6430": " versions",
  "6431": " motion",
  "6432": " metal",
  "6433": "hips",
  "6434": " evolution",
  "6435": "ometimes",
  "6436": " vice",
  "6437": "anish",
  "6438": " relevant",
  "6439": " sees",
  "6440": " Image",
  "6441": " bag",
  "6442": " industrial",
  "6443": " zero",
  "6444": "IR",
  "6445": " sick",
  "6446": " downt",
  "6447": "oma",
  "6448": " closely",
  "6449": " Ann",
  "6450": "hetic",
  "6451": " emotional",
  "6452": "chen",
  "6453": "game",
  "6454": "IF",
  "6455": " YouTube",
  "6456": " Year",
  "6457": "va",
  "6458": " fewer",
  "6459": " division",
  "6460": "olve",
  "6461": " adm",
  "6462": " harder",
  "6463": " customer",
  "6464": " hoping",
  "6465": "ologist",
  "6466": " tom",
  "6467": " Brook",
  "6468": "Donald",
  "6469": "En",
  "6470": " Valley",
  "6471": " hur",
  "6472": " Gra",
  "6473": " mechanism",
  "6474": "ittle",
  "6475": "ml",
  "6476": " Houston",
  "6477": " Elect",
  "6478": "inem",
  "6479": " returns",
  "6480": "NC",
  "6481": "atell",
  "6482": " volunte",
  "6483": " participants",
  "6484": " extent",
  "6485": " intention",
  "6486": "po",
  "6487": "alian",
  "6488": "esc",
  "6489": "ellect",
  "6490": " excellent",
  "6491": " Soviet",
  "6492": " acknowled",
  "6493": " syn",
  "6494": "ulous",
  "6495": "oming",
  "6496": " Mot",
  "6497": " batt",
  "6498": " Games",
  "6499": " squad",
  "6500": "greg",
  "6501": " circumstances",
  "6502": "pan",
  "6503": " fashion",
  "6504": " isol",
  "6505": "Ã¼",
  "6506": "otal",
  "6507": " immediate",
  "6508": " Eric",
  "6509": " suffering",
  "6510": " Watch",
  "6511": "str",
  "6512": " lies",
  "6513": " tiny",
  "6514": " authors",
  "6515": " 38",
  "6516": " grown",
  "6517": " Gar",
  "6518": "iger",
  "6519": "efully",
  "6520": " immigrants",
  "6521": "Ã",
  "6522": "print",
  "6523": "ora",
  "6524": " kinds",
  "6525": "utch",
  "6526": " 49",
  "6527": " Die",
  "6528": " cheap",
  "6529": " mine",
  "6530": " detailed",
  "6531": "ordan",
  "6532": " Hel",
  "6533": "name",
  "6534": " featured",
  "6535": " Wik",
  "6536": " Er",
  "6537": " Sar",
  "6538": "ayers",
  "6539": " meat",
  "6540": " unus",
  "6541": " Aut",
  "6542": " competitive",
  "6543": " describe",
  "6544": " formed",
  "6545": " Home",
  "6546": " IP",
  "6547": "friend",
  "6548": "nic",
  "6549": "certain",
  "6550": " carrying",
  "6551": " tournament",
  "6552": " termin",
  "6553": " trick",
  "6554": " relationships",
  "6555": " fundamental",
  "6556": "kel",
  "6557": " wave",
  "6558": " cycle",
  "6559": "obb",
  "6560": " crazy",
  "6561": " Cy",
  "6562": " signing",
  "6563": " Way",
  "6564": " guide",
  "6565": " wins",
  "6566": " Catholic",
  "6567": " earned",
  "6568": "08",
  "6569": " decline",
  "6570": " regional",
  "6571": "nam",
  "6572": "ensus",
  "6573": "style",
  "6574": " embr",
  "6575": " strange",
  "6576": " Palestinian",
  "6577": " Jesus",
  "6578": " Long",
  "6579": " ancient",
  "6580": " frequently",
  "6581": "06",
  "6582": " acting",
  "6583": " Putin",
  "6584": " manner",
  "6585": " efficient",
  "6586": "rome",
  "6587": " pushing",
  "6588": " CIA",
  "6589": " comfortable",
  "6590": " Card",
  "6591": " pip",
  "6592": "ORE",
  "6593": "Per",
  "6594": " sharing",
  "6595": " wire",
  "6596": " skill",
  "6597": " Econom",
  "6598": "ockey",
  "6599": "chers",
  "6600": " instru",
  "6601": " Ell",
  "6602": " owned",
  "6603": "bar",
  "6604": " commitment",
  "6605": " alongside",
  "6606": " OF",
  "6607": "uated",
  "6608": "anes",
  "6609": " Lord",
  "6610": "09",
  "6611": " Davis",
  "6612": "rison",
  "6613": " controversial",
  "6614": " artists",
  "6615": " referred",
  "6616": "weight",
  "6617": " egg",
  "6618": " mouth",
  "6619": " repeatedly",
  "6620": " 48",
  "6621": " Top",
  "6622": "ï¿",
  "6623": " 34",
  "6624": "FP",
  "6625": "awa",
  "6626": " attempted",
  "6627": " femin",
  "6628": "umber",
  "6629": " updated",
  "6630": "foot",
  "6631": " cert",
  "6632": "ua",
  "6633": " pregn",
  "6634": " Old",
  "6635": " schedule",
  "6636": "vin",
  "6637": "xy",
  "6638": " PS",
  "6639": "amily",
  "6640": "adel",
  "6641": " dedicated",
  "6642": "Ð½",
  "6643": " AL",
  "6644": " sentence",
  "6645": " upcoming",
  "6646": " Right",
  "6647": " NY",
  "6648": " Down",
  "6649": " Di",
  "6650": " column",
  "6651": "hus",
  "6652": " depth",
  "6653": " pled",
  "6654": " virtual",
  "6655": "uable",
  "6656": " journey",
  "6657": " struck",
  "6658": "Ñ",
  "6659": " desk",
  "6660": " studio",
  "6661": " realized",
  "6662": " Energy",
  "6663": "Despite",
  "6664": "ceived",
  "6665": "%)",
  "6666": "ographic",
  "6667": "ko",
  "6668": "ugh",
  "6669": " medic",
  "6670": "DS",
  "6671": " serving",
  "6672": "iami",
  "6673": " walked",
  "6674": "rive",
  "6675": "iveness",
  "6676": " king",
  "6677": " ring",
  "6678": " reput",
  "6679": "you",
  "6680": " urban",
  "6681": "phy",
  "6682": "07",
  "6683": " Cle",
  "6684": " Charles",
  "6685": " Wild",
  "6686": " targeted",
  "6687": " channel",
  "6688": " assets",
  "6689": "luding",
  "6690": " tort",
  "6691": " inspired",
  "6692": " hotel",
  "6693": " Arizona",
  "6694": " posts",
  "6695": " newslet",
  "6696": "Like",
  "6697": "Two",
  "6698": " Supp",
  "6699": " universe",
  "6700": " agenda",
  "6701": " causing",
  "6702": " watched",
  "6703": " suicide",
  "6704": " stream",
  "6705": " overwhel",
  "6706": " Py",
  "6707": " usual",
  "6708": " surveillance",
  "6709": " Men",
  "6710": " intent",
  "6711": "sole",
  "6712": "People",
  "6713": " liqu",
  "6714": " sister",
  "6715": " opponents",
  "6716": " chairman",
  "6717": " du",
  "6718": " Wars",
  "6719": " Cruz",
  "6720": " mainstream",
  "6721": "gor",
  "6722": "bel",
  "6723": " latter",
  "6724": " hall",
  "6725": " surrounding",
  "6726": " folks",
  "6727": " knowing",
  "6728": " orders",
  "6729": " Inf",
  "6730": " remote",
  "6731": " 75",
  "6732": " sand",
  "6733": " literally",
  "6734": " Java",
  "6735": " observed",
  "6736": " Again",
  "6737": " subsid",
  "6738": "Fr",
  "6739": " Defense",
  "6740": " infl",
  "6741": " approval",
  "6742": "acc",
  "6743": " Van",
  "6744": "iments",
  "6745": " basket",
  "6746": "rence",
  "6747": "burg",
  "6748": " teachers",
  "6749": "azi",
  "6750": "avor",
  "6751": "izz",
  "6752": " winter",
  "6753": "iciency",
  "6754": "alle",
  "6755": " exciting",
  "6756": "aze",
  "6757": "iro",
  "6758": "aylor",
  "6759": " Tal",
  "6760": " format",
  "6761": "boy",
  "6762": " congress",
  "6763": " protected",
  "6764": "ati",
  "6765": " noticed",
  "6766": " simpl",
  "6767": " dealing",
  "6768": " Young",
  "6769": "rations",
  "6770": " Child",
  "6771": " precise",
  "6772": "67",
  "6773": "xual",
  "6774": " deeply",
  "6775": "ipl",
  "6776": " communication",
  "6777": " gang",
  "6778": " sending",
  "6779": " forth",
  "6780": " Jr",
  "6781": " fasc",
  "6782": " battery",
  "6783": " wal",
  "6784": "mun",
  "6785": " sky",
  "6786": " narr",
  "6787": " fixed",
  "6788": "post",
  "6789": "abis",
  "6790": " aside",
  "6791": " requirements",
  "6792": "Int",
  "6793": " properties",
  "6794": "rors",
  "6795": " alive",
  "6796": " narrow",
  "6797": " wake",
  "6798": "allas",
  "6799": " passion",
  "6800": " Arch",
  "6801": "onymous",
  "6802": " eating",
  "6803": "Or",
  "6804": "ensity",
  "6805": " mistake",
  "6806": "woman",
  "6807": " explore",
  "6808": " coffee",
  "6809": " Pan",
  "6810": " 1970",
  "6811": " rape",
  "6812": " volume",
  "6813": " promised",
  "6814": " diet",
  "6815": "acking",
  "6816": " risks",
  "6817": " exhib",
  "6818": " Polit",
  "6819": " Fort",
  "6820": " sweet",
  "6821": "May",
  "6822": "â.",
  "6823": " Enter",
  "6824": " Wat",
  "6825": " neut",
  "6826": " involving",
  "6827": " wage",
  "6828": " selection",
  "6829": " Max",
  "6830": " tested",
  "6831": "ether",
  "6832": " flu",
  "6833": "ulture",
  "6834": " defeat",
  "6835": " northern",
  "6836": " reward",
  "6837": " welcome",
  "6838": " Cast",
  "6839": " extended",
  "6840": " puts",
  "6841": " territory",
  "6842": " phenomen",
  "6843": " unemploy",
  "6844": " refugees",
  "6845": " sample",
  "6846": " height",
  "6847": " approximately",
  "6848": " Kevin",
  "6849": "59",
  "6850": " blame",
  "6851": " Brad",
  "6852": " anyway",
  "6853": "ums",
  "6854": " Detroit",
  "6855": " destroyed",
  "6856": "obile",
  "6857": "ta",
  "6858": " impressive",
  "6859": " Stephen",
  "6860": "asks",
  "6861": " god",
  "6862": " proof",
  "6863": " gap",
  "6864": " dry",
  "6865": "ï¿½",
  "6866": " crash",
  "6867": " unknown",
  "6868": " locations",
  "6869": "04",
  "6870": "igg",
  "6871": " selected",
  "6872": "apse",
  "6873": " west",
  "6874": "anges",
  "6875": "gery",
  "6876": "stone",
  "6877": " Fil",
  "6878": " attacked",
  "6879": " maximum",
  "6880": " Miller",
  "6881": " Wilson",
  "6882": " Tit",
  "6883": " promote",
  "6884": " shel",
  "6885": "aser",
  "6886": " merely",
  "6887": " franchise",
  "6888": "arry",
  "6889": "lv",
  "6890": " requests",
  "6891": " sho",
  "6892": " retire",
  "6893": " suddenly",
  "6894": " slowly",
  "6895": " protesters",
  "6896": " disag",
  "6897": "dro",
  "6898": " teacher",
  "6899": "ixt",
  "6900": " typical",
  "6901": "ogan",
  "6902": " Women",
  "6903": " Ins",
  "6904": "ingu",
  "6905": " conver",
  "6906": "list",
  "6907": " chose",
  "6908": " Camer",
  "6909": " Class",
  "6910": " Lu",
  "6911": " matches",
  "6912": " prote",
  "6913": " license",
  "6914": " properly",
  "6915": " assume",
  "6916": "oration",
  "6917": " discover",
  "6918": "03",
  "6919": " wid",
  "6920": " PR",
  "6921": " Mic",
  "6922": "Rel",
  "6923": " worried",
  "6924": " moder",
  "6925": "fire",
  "6926": " abortion",
  "6927": "owered",
  "6928": " allies",
  "6929": "ao",
  "6930": " oblig",
  "6931": " terrorism",
  "6932": "02",
  "6933": " supports",
  "6934": " Î",
  "6935": "uilding",
  "6936": "ÃÃ",
  "6937": "inson",
  "6938": "verty",
  "6939": " arguments",
  "6940": " adapt",
  "6941": " theme",
  "6942": " confront",
  "6943": " facilities",
  "6944": " sustain",
  "6945": "gender",
  "6946": " east",
  "6947": " pal",
  "6948": " recognize",
  "6949": "igure",
  "6950": " fuck",
  "6951": "ÃÃÃÃ",
  "6952": "lies",
  "6953": " equival",
  "6954": "mo",
  "6955": " obtained",
  "6956": " poverty",
  "6957": " rub",
  "6958": " Italy",
  "6959": " nomine",
  "6960": " deals",
  "6961": " fees",
  "6962": "alo",
  "6963": "itarian",
  "6964": "osis",
  "6965": " Hollywood",
  "6966": " understood",
  "6967": " controlled",
  "6968": "VER",
  "6969": " Best",
  "6970": " Dam",
  "6971": " topic",
  "6972": " critics",
  "6973": " Society",
  "6974": " Agency",
  "6975": "axy",
  "6976": " Ford",
  "6977": " sole",
  "6978": " Jersey",
  "6979": "arity",
  "6980": " village",
  "6981": " diagn",
  "6982": " Administ",
  "6983": "raid",
  "6984": "68",
  "6985": " likes",
  "6986": "celer",
  "6987": "han",
  "6988": "sters",
  "6989": " Four",
  "6990": " evil",
  "6991": "Te",
  "6992": " punish",
  "6993": " dress",
  "6994": "cript",
  "6995": " ped",
  "6996": " Georgia",
  "6997": " bunch",
  "6998": " Company",
  "6999": " journalists",
  "7000": "John",
  "7001": " exposed",
  "7002": " regions",
  "7003": "redit",
  "7004": "ocation",
  "7005": " scheme",
  "7006": " communications",
  "7007": " transp",
  "7008": " stim",
  "7009": " limits",
  "7010": " somehow",
  "7011": " strongly",
  "7012": " honor",
  "7013": " drag",
  "7014": " resistance",
  "7015": "lls",
  "7016": "aire",
  "7017": "aug",
  "7018": " champion",
  "7019": " Labor",
  "7020": " constant",
  "7021": " phase",
  "7022": " NASA",
  "7023": "asts",
  "7024": " Carl",
  "7025": "pool",
  "7026": " profit",
  "7027": " truck",
  "7028": " condem",
  "7029": " escape",
  "7030": " personally",
  "7031": " Night",
  "7032": " Dun",
  "7033": "rimination",
  "7034": " Land",
  "7035": " bid",
  "7036": " NHL",
  "7037": " Stand",
  "7038": " vacc",
  "7039": " deck",
  "7040": "CA",
  "7041": "nesota",
  "7042": "iform",
  "7043": " falling",
  "7044": "GBT",
  "7045": " Network",
  "7046": " somewhere",
  "7047": "ems",
  "7048": "cers",
  "7049": " employee",
  "7050": " harass",
  "7051": "ads",
  "7052": " bear",
  "7053": " CD",
  "7054": "iner",
  "7055": " comparison",
  "7056": "orted",
  "7057": "ciples",
  "7058": " polls",
  "7059": "owa",
  "7060": " inqu",
  "7061": " Love",
  "7062": "pected",
  "7063": " southern",
  "7064": "oric",
  "7065": " decent",
  "7066": "cow",
  "7067": " Spanish",
  "7068": " encourage",
  "7069": " emissions",
  "7070": " 39",
  "7071": " Kn",
  "7072": " View",
  "7073": "enders",
  "7074": " empty",
  "7075": " Miami",
  "7076": " hits",
  "7077": "oster",
  "7078": " Cam",
  "7079": " definition",
  "7080": "57",
  "7081": " pic",
  "7082": "wan",
  "7083": " directed",
  "7084": "pes",
  "7085": " flex",
  "7086": "zens",
  "7087": " Ok",
  "7088": " meetings",
  "7089": " End",
  "7090": " Bell",
  "7091": "Ð¾Ð",
  "7092": " comprom",
  "7093": " winner",
  "7094": "intend",
  "7095": "icken",
  "7096": " gotten",
  "7097": " Daniel",
  "7098": " Turk",
  "7099": " electricity",
  "7100": "aun",
  "7101": " chosen",
  "7102": " officially",
  "7103": " bench",
  "7104": " stretch",
  "7105": " database",
  "7106": "Com",
  "7107": " Despite",
  "7108": " intellect",
  "7109": " spin",
  "7110": "igation",
  "7111": " stronger",
  "7112": " deleg",
  "7113": " purposes",
  "7114": " DNA",
  "7115": " cutting",
  "7116": " Turn",
  "7117": " fold",
  "7118": "rary",
  "7119": " extensive",
  "7120": " amounts",
  "7121": " desper",
  "7122": " trees",
  "7123": " anx",
  "7124": " ideal",
  "7125": " Asian",
  "7126": " thread",
  "7127": " fifth",
  "7128": "",
  "7129": "UR",
  "7130": " goods",
  "7131": " colon",
  "7132": " developer",
  "7133": " claiming",
  "7134": "unning",
  "7135": "Any",
  "7136": " retain",
  "7137": " soul",
  "7138": " captured",
  "7139": " Though",
  "7140": " finds",
  "7141": " driven",
  "7142": " payments",
  "7143": "asters",
  "7144": " Jordan",
  "7145": "ras",
  "7146": "CS",
  "7147": " ties",
  "7148": " reasonable",
  "7149": " dogs",
  "7150": "â",
  "7151": " somebody",
  "7152": " ending",
  "7153": " Nations",
  "7154": " choices",
  "7155": " ble",
  "7156": " seats",
  "7157": " Services",
  "7158": " Thank",
  "7159": " pod",
  "7160": " engage",
  "7161": " drawn",
  "7162": " sight",
  "7163": "CE",
  "7164": " param",
  "7165": " Dar",
  "7166": " threatened",
  "7167": " ruled",
  "7168": "eping",
  "7169": " Attorney",
  "7170": " Irish",
  "7171": "ura",
  "7172": " Sea",
  "7173": " trading",
  "7174": "owed",
  "7175": " primarily",
  "7176": " aspects",
  "7177": " fighters",
  "7178": "ML",
  "7179": " answers",
  "7180": " perfectly",
  "7181": "irms",
  "7182": " Academ",
  "7183": " incl",
  "7184": " rival",
  "7185": " parking",
  "7186": " rejected",
  "7187": " Gall",
  "7188": " constantly",
  "7189": " Hun",
  "7190": "fast",
  "7191": " payment",
  "7192": " Cat",
  "7193": " distinct",
  "7194": " flying",
  "7195": " rig",
  "7196": " technologies",
  "7197": " Real",
  "7198": "</",
  "7199": " components",
  "7200": "Police",
  "7201": " admit",
  "7202": " Scotland",
  "7203": " elsewhere",
  "7204": " Dark",
  "7205": " constit",
  "7206": " tur",
  "7207": " anymore",
  "7208": "lder",
  "7209": " icon",
  "7210": " fields",
  "7211": " estimates",
  "7212": "EW",
  "7213": "sea",
  "7214": " solutions",
  "7215": " resulting",
  "7216": "78",
  "7217": " Bru",
  "7218": " awesome",
  "7219": " encoun",
  "7220": " province",
  "7221": "mod",
  "7222": " worldwide",
  "7223": " actor",
  "7224": " regularly",
  "7225": " Moore",
  "7226": " courts",
  "7227": " narrative",
  "7228": " Ut",
  "7229": "Once",
  "7230": " boot",
  "7231": " enemies",
  "7232": " mixed",
  "7233": "regon",
  "7234": " OS",
  "7235": " Disney",
  "7236": "sm",
  "7237": "icer",
  "7238": " houses",
  "7239": " nobody",
  "7240": " Sk",
  "7241": "inations",
  "7242": " controls",
  "7243": " Water",
  "7244": " letters",
  "7245": "ez",
  "7246": "apes",
  "7247": "agram",
  "7248": "iana",
  "7249": "imp",
  "7250": " 42",
  "7251": " murd",
  "7252": " mayor",
  "7253": " loan",
  "7254": " outcome",
  "7255": " MS",
  "7256": " contem",
  "7257": "sell",
  "7258": "Sec",
  "7259": "vy",
  "7260": "ship",
  "7261": " Light",
  "7262": "onic",
  "7263": "isan",
  "7264": " apartment",
  "7265": " Steven",
  "7266": " coalition",
  "7267": " contributed",
  "7268": " Bas",
  "7269": " tank",
  "7270": " concluded",
  "7271": " Adam",
  "7272": " exists",
  "7273": " Tw",
  "7274": " founder",
  "7275": " Brian",
  "7276": "earing",
  "7277": " Lew",
  "7278": " atmosphere",
  "7279": " profile",
  "7280": " brew",
  "7281": " Id",
  "7282": " situations",
  "7283": " Championship",
  "7284": " Author",
  "7285": "rates",
  "7286": " incredible",
  "7287": " Constitution",
  "7288": " signal",
  "7289": "otes",
  "7290": " Rog",
  "7291": " accurate",
  "7292": "300",
  "7293": " Victor",
  "7294": "otten",
  "7295": " unp",
  "7296": " Where",
  "7297": "ker",
  "7298": " Southern",
  "7299": ".\"[",
  "7300": " employment",
  "7301": " clients",
  "7302": "Dr",
  "7303": " keeps",
  "7304": " informed",
  "7305": " continuing",
  "7306": "inity",
  "7307": " baseball",
  "7308": " generate",
  "7309": " ticket",
  "7310": " conven",
  "7311": "Also",
  "7312": " Conf",
  "7313": " weird",
  "7314": " tied",
  "7315": "lock",
  "7316": "adelph",
  "7317": " category",
  "7318": " infect",
  "7319": "ilarly",
  "7320": "acked",
  "7321": " angry",
  "7322": " Organ",
  "7323": " routine",
  "7324": "aron",
  "7325": " kil",
  "7326": " raising",
  "7327": "ifer",
  "7328": " machines",
  "7329": " registered",
  "7330": " proved",
  "7331": "there",
  "7332": " demands",
  "7333": " gaming",
  "7334": " Italian",
  "7335": " incredibly",
  "7336": " crucial",
  "7337": " stuck",
  "7338": " Civil",
  "7339": " Dallas",
  "7340": "cr",
  "7341": " terrible",
  "7342": "56",
  "7343": "MP",
  "7344": " feedback",
  "7345": " upper",
  "7346": " plastic",
  "7347": " imper",
  "7348": " newly",
  "7349": " Joseph",
  "7350": " consumption",
  "7351": " dozen",
  "7352": " enthus",
  "7353": " estate",
  "7354": "ali",
  "7355": "rage",
  "7356": " innoc",
  "7357": " manip",
  "7358": " Tem",
  "7359": " conscious",
  "7360": " bills",
  "7361": " Cross",
  "7362": " Spain",
  "7363": "ifications",
  "7364": "Today",
  "7365": " writers",
  "7366": " excess",
  "7367": "inding",
  "7368": " aggressive",
  "7369": " reporter",
  "7370": " compens",
  "7371": " returning",
  "7372": " stead",
  "7373": " programming",
  "7374": " Thanks",
  "7375": " represented",
  "7376": " conclusion",
  "7377": "98",
  "7378": " rus",
  "7379": " Bowl",
  "7380": " AR",
  "7381": "MS",
  "7382": " origin",
  "7383": " assistant",
  "7384": "adelphia",
  "7385": " roster",
  "7386": " Minnesota",
  "7387": " organized",
  "7388": "ria",
  "7389": " penalty",
  "7390": "lers",
  "7391": " drinking",
  "7392": " paint",
  "7393": " satell",
  "7394": " gro",
  "7395": " Program",
  "7396": " capture",
  "7397": "ni",
  "7398": " conspir",
  "7399": " interpret",
  "7400": " explanation",
  "7401": "iscal",
  "7402": "58",
  "7403": " county",
  "7404": "iscons",
  "7405": "essed",
  "7406": "mont",
  "7407": "ima",
  "7408": " %",
  "7409": "anny",
  "7410": "gorith",
  "7411": "emen",
  "7412": "isconsin",
  "7413": " assistance",
  "7414": " Roman",
  "7415": " complaint",
  "7416": " ru",
  "7417": " nut",
  "7418": "LA",
  "7419": " magic",
  "7420": " tall",
  "7421": " Oper",
  "7422": " granted",
  "7423": "Ed",
  "7424": "Because",
  "7425": " Contin",
  "7426": "star",
  "7427": "Off",
  "7428": " Parliament",
  "7429": " complicated",
  "7430": " audio",
  "7431": " chances",
  "7432": " extract",
  "7433": "rypt",
  "7434": " Gi",
  "7435": " 1999",
  "7436": " hel",
  "7437": " Educ",
  "7438": "era",
  "7439": " shares",
  "7440": " successfully",
  "7441": "esy",
  "7442": "........",
  "7443": " IT",
  "7444": "zy",
  "7445": " pilot",
  "7446": " Ep",
  "7447": " Hot",
  "7448": " myth",
  "7449": " recovery",
  "7450": " Test",
  "7451": " techniques",
  "7452": " iron",
  "7453": " Care",
  "7454": " Zeal",
  "7455": " SC",
  "7456": " scenes",
  "7457": " Fre",
  "7458": " veteran",
  "7459": " Win",
  "7460": " ($",
  "7461": " degrees",
  "7462": "actions",
  "7463": "ked",
  "7464": " sympt",
  "7465": "thew",
  "7466": " lawmakers",
  "7467": " western",
  "7468": " operate",
  "7469": " ads",
  "7470": "rating",
  "7471": " habit",
  "7472": " aimed",
  "7473": "Inst",
  "7474": "anchester",
  "7475": " phr",
  "7476": "rep",
  "7477": "rete",
  "7478": " taste",
  "7479": "idency",
  "7480": " engaged",
  "7481": " privile",
  "7482": " 55",
  "7483": "========",
  "7484": " rating",
  "7485": " teaching",
  "7486": " Os",
  "7487": " academic",
  "7488": "itar",
  "7489": " therap",
  "7490": " passes",
  "7491": " dollar",
  "7492": "hent",
  "7493": " automatically",
  "7494": " Pacific",
  "7495": " monit",
  "7496": " blocks",
  "7497": "abama",
  "7498": " attended",
  "7499": " permanent",
  "7500": " survive",
  "7501": "uan",
  "7502": " anticip",
  "7503": " enable",
  "7504": " Look",
  "7505": " extrem",
  "7506": " Foreign",
  "7507": "chain",
  "7508": "%.",
  "7509": " marked",
  "7510": "itals",
  "7511": " hidden",
  "7512": " accomp",
  "7513": " titles",
  "7514": " Senator",
  "7515": " NBC",
  "7516": " taught",
  "7517": "aed",
  "7518": " Linux",
  "7519": " bom",
  "7520": " index",
  "7521": "everal",
  "7522": " elite",
  "7523": "ibilities",
  "7524": " lawyers",
  "7525": "from",
  "7526": " depending",
  "7527": " valuable",
  "7528": " installed",
  "7529": " championship",
  "7530": " root",
  "7531": " compre",
  "7532": "mal",
  "7533": " Bull",
  "7534": " downtown",
  "7535": " equivalent",
  "7536": " solve",
  "7537": "rific",
  "7538": " duty",
  "7539": " Special",
  "7540": " Business",
  "7541": " 64",
  "7542": " pace",
  "7543": "HS",
  "7544": " reputation",
  "7545": " uncertain",
  "7546": " phones",
  "7547": "uine",
  "7548": " overse",
  "7549": "bal",
  "7550": " Taylor",
  "7551": " personnel",
  "7552": " pin",
  "7553": "reams",
  "7554": "aturally",
  "7555": " sufficient",
  "7556": " visited",
  "7557": " warming",
  "7558": " principles",
  "7559": " vulnerable",
  "7560": " enjoyed",
  "7561": " fake",
  "7562": " Nick",
  "7563": " advis",
  "7564": " negotiations",
  "7565": "inder",
  "7566": " generated",
  "7567": " exposure",
  "7568": " recording",
  "7569": " collected",
  "7570": " regardless",
  "7571": " dict",
  "7572": "EA",
  "7573": " bitcoin",
  "7574": " elev",
  "7575": "ã",
  "7576": "active",
  "7577": " Kelly",
  "7578": " Anth",
  "7579": " cup",
  "7580": " patterns",
  "7581": "Getty",
  "7582": " Take",
  "7583": "))",
  "7584": " Avenue",
  "7585": " Josh",
  "7586": "bro",
  "7587": " disaster",
  "7588": " cable",
  "7589": " 65",
  "7590": " chat",
  "7591": " worker",
  "7592": " mainly",
  "7593": " racial",
  "7594": "quarters",
  "7595": " Coast",
  "7596": " Viet",
  "7597": "month",
  "7598": " pounds",
  "7599": " 150",
  "7600": " Call",
  "7601": " portion",
  "7602": " afraid",
  "7603": " inspir",
  "7604": " Ah",
  "7605": " defence",
  "7606": " bes",
  "7607": " Eastern",
  "7608": "da",
  "7609": " Tony",
  "7610": " tracks",
  "7611": " busy",
  "7612": " grant",
  "7613": " shit",
  "7614": " intense",
  "7615": " Series",
  "7616": " LGBT",
  "7617": "orne",
  "7618": " Still",
  "7619": "athy",
  "7620": " funny",
  "7621": " apolog",
  "7622": " surgery",
  "7623": " Moscow",
  "7624": "mann",
  "7625": " Coll",
  "7626": " possession",
  "7627": " prominent",
  "7628": " Mars",
  "7629": " comic",
  "7630": " Ger",
  "7631": "ashes",
  "7632": "97",
  "7633": "ules",
  "7634": " Ray",
  "7635": " thin",
  "7636": " engineering",
  "7637": " troub",
  "7638": " Kurd",
  "7639": "this",
  "7640": " processes",
  "7641": " Nation",
  "7642": "fall",
  "7643": " Kent",
  "7644": " Come",
  "7645": " entit",
  "7646": " â",
  "7647": " unusual",
  "7648": "raph",
  "7649": "etary",
  "7650": " describes",
  "7651": "Col",
  "7652": "world",
  "7653": "96",
  "7654": " resulted",
  "7655": " emerged",
  "7656": " taxp",
  "7657": " gall",
  "7658": "iler",
  "7659": " dim",
  "7660": " propag",
  "7661": " Iowa",
  "7662": " Oregon",
  "7663": " coordin",
  "7664": " corruption",
  "7665": " stations",
  "7666": " Invest",
  "7667": " fought",
  "7668": " AD",
  "7669": " brut",
  "7670": " extension",
  "7671": "ref",
  "7672": " blind",
  "7673": " adopted",
  "7674": "prise",
  "7675": "ye",
  "7676": " compete",
  "7677": " recru",
  "7678": " Zealand",
  "7679": " hadn",
  "7680": "Pr",
  "7681": " 400",
  "7682": " mail",
  "7683": " everywhere",
  "7684": " Balt",
  "7685": " crypt",
  "7686": " Hom",
  "7687": "ba",
  "7688": "Rec",
  "7689": "Mean",
  "7690": "herent",
  "7691": "icate",
  "7692": " Ali",
  "7693": " contracts",
  "7694": "front",
  "7695": " neuro",
  "7696": " Lo",
  "7697": " Dead",
  "7698": " Rick",
  "7699": " feelings",
  "7700": " firms",
  "7701": "idelines",
  "7702": "â,",
  "7703": " minority",
  "7704": " spr",
  "7705": "cles",
  "7706": "HA",
  "7707": " advertising",
  "7708": "tes",
  "7709": " rarely",
  "7710": " discipl",
  "7711": "making",
  "7712": " Northern",
  "7713": " sanctions",
  "7714": "gun",
  "7715": " Veg",
  "7716": "scape",
  "7717": " Philadelphia",
  "7718": "upid",
  "7719": " cameras",
  "7720": " explicit",
  "7721": " strict",
  "7722": "viously",
  "7723": "log",
  "7724": " enorm",
  "7725": " finance",
  "7726": " cited",
  "7727": "ifies",
  "7728": " Before",
  "7729": " shortly",
  "7730": "UL",
  "7731": " Policy",
  "7732": "olt",
  "7733": " expectations",
  "7734": " implementation",
  "7735": "ogen",
  "7736": " recip",
  "7737": "cling",
  "7738": " Greek",
  "7739": " thick",
  "7740": " thousand",
  "7741": "antic",
  "7742": " Mu",
  "7743": " loud",
  "7744": "istent",
  "7745": " affili",
  "7746": "urrent",
  "7747": "orough",
  "7748": " Navy",
  "7749": " inev",
  "7750": "rell",
  "7751": "cus",
  "7752": " photograph",
  "7753": " medium",
  "7754": "azz",
  "7755": " Wisconsin",
  "7756": " scenario",
  "7757": " Food",
  "7758": " Live",
  "7759": " sup",
  "7760": "ilton",
  "7761": " plug",
  "7762": " veget",
  "7763": " ho",
  "7764": " visible",
  "7765": "LC",
  "7766": " lights",
  "7767": " creates",
  "7768": " priority",
  "7769": " ven",
  "7770": " bridge",
  "7771": "eland",
  "7772": "inking",
  "7773": " obst",
  "7774": " agric",
  "7775": "ATE",
  "7776": " permission",
  "7777": " Foot",
  "7778": " algorith",
  "7779": "izon",
  "7780": "Co",
  "7781": "elect",
  "7782": " participate",
  "7783": "aska",
  "7784": " wing",
  "7785": "who",
  "7786": "asion",
  "7787": " browser",
  "7788": " Global",
  "7789": " tag",
  "7790": " Ol",
  "7791": " Has",
  "7792": " mel",
  "7793": " acceler",
  "7794": " dozens",
  "7795": " Kingdom",
  "7796": " historic",
  "7797": " computers",
  "7798": " laid",
  "7799": " basketball",
  "7800": " losses",
  "7801": "text",
  "7802": " Saf",
  "7803": " Ash",
  "7804": "76",
  "7805": "ogether",
  "7806": " unw",
  "7807": "::",
  "7808": " tor",
  "7809": " Amendment",
  "7810": "Mar",
  "7811": " strikes",
  "7812": " principle",
  "7813": " Development",
  "7814": " formal",
  "7815": "EP",
  "7816": "igen",
  "7817": "54",
  "7818": " scoring",
  "7819": "obs",
  "7820": "athered",
  "7821": " 44",
  "7822": " counsel",
  "7823": "found",
  "7824": "++",
  "7825": " shock",
  "7826": " wonderful",
  "7827": " SP",
  "7828": " behalf",
  "7829": "abs",
  "7830": " uncom",
  "7831": "profit",
  "7832": "52",
  "7833": "enth",
  "7834": " interface",
  "7835": " establishment",
  "7836": " toler",
  "7837": " Henry",
  "7838": " Greg",
  "7839": "amber",
  "7840": "car",
  "7841": " Major",
  "7842": " Thus",
  "7843": "Us",
  "7844": " gained",
  "7845": " fee",
  "7846": "lete",
  "7847": "she",
  "7848": " founded",
  "7849": "etime",
  "7850": " foundation",
  "7851": "jo",
  "7852": "51",
  "7853": " ESP",
  "7854": "ilipp",
  "7855": " clubs",
  "7856": " cannabis",
  "7857": " ju",
  "7858": " airport",
  "7859": " Key",
  "7860": "ystem",
  "7861": " borrow",
  "7862": "olis",
  "7863": "weet",
  "7864": "BO",
  "7865": " manufacturing",
  "7866": " rely",
  "7867": " Hit",
  "7868": "aus",
  "7869": " Pay",
  "7870": " Alabama",
  "7871": " genuine",
  "7872": " Royal",
  "7873": "rators",
  "7874": "Before",
  "7875": "uer",
  "7876": " component",
  "7877": " ridic",
  "7878": "osexual",
  "7879": " wheel",
  "7880": "rative",
  "7881": " Oak",
  "7882": " journalist",
  "7883": " relief",
  "7884": " Sn",
  "7885": " saved",
  "7886": " hole",
  "7887": " yield",
  "7888": " headed",
  "7889": " cyber",
  "7890": "Ne",
  "7891": " Moh",
  "7892": "ependent",
  "7893": " gift",
  "7894": "bell",
  "7895": " fault",
  "7896": " withdraw",
  "7897": " indicate",
  "7898": " drawing",
  "7899": " uniform",
  "7900": "umer",
  "7901": " Rand",
  "7902": " Vis",
  "7903": "arlier",
  "7904": " stable",
  "7905": " ships",
  "7906": " ->",
  "7907": " banned",
  "7908": " magn",
  "7909": " Mid",
  "7910": " footage",
  "7911": "Meanwhile",
  "7912": "rous",
  "7913": " doors",
  "7914": "lan",
  "7915": " recognized",
  "7916": " 1960",
  "7917": " containing",
  "7918": "pread",
  "7919": " FC",
  "7920": " river",
  "7921": "ami",
  "7922": " struggling",
  "7923": "Sub",
  "7924": " spark",
  "7925": " Academy",
  "7926": " walls",
  "7927": " achieved",
  "7928": "opher",
  "7929": "ounced",
  "7930": " neighb",
  "7931": "aning",
  "7932": " plate",
  "7933": " edition",
  "7934": " HT",
  "7935": "portion",
  "7936": "mate",
  "7937": " movements",
  "7938": " deliber",
  "7939": "uce",
  "7940": "teen",
  "7941": "Post",
  "7942": " sharp",
  "7943": " AS",
  "7944": " Snow",
  "7945": "ulating",
  "7946": " Three",
  "7947": " episodes",
  "7948": " neutral",
  "7949": " Premier",
  "7950": " Ret",
  "7951": " Fund",
  "7952": " exception",
  "7953": "etts",
  "7954": " producer",
  "7955": "________________",
  "7956": " Fred",
  "7957": " destruction",
  "7958": " 1998",
  "7959": "oured",
  "7960": " beliefs",
  "7961": " 47",
  "7962": " Review",
  "7963": " legend",
  "7964": " pump",
  "7965": " McG",
  "7966": " backed",
  "7967": "umin",
  "7968": " liked",
  "7969": " hired",
  "7970": "idespread",
  "7971": "cription",
  "7972": " roles",
  "7973": " languages",
  "7974": " profession",
  "7975": " entering",
  "7976": "osa",
  "7977": " VR",
  "7978": " interviews",
  "7979": " hang",
  "7980": "isp",
  "7981": " Kir",
  "7982": "eman",
  "7983": " tox",
  "7984": " philosophy",
  "7985": " Administration",
  "7986": " arrange",
  "7987": "oen",
  "7988": "interest",
  "7989": " flaw",
  "7990": "Those",
  "7991": " Nob",
  "7992": "sylv",
  "7993": "imore",
  "7994": " stadium",
  "7995": " Atlanta",
  "7996": " Jac",
  "7997": " reduction",
  "7998": " dinner",
  "7999": "ca",
  "8000": "ja",
  "8001": " bath",
  "8002": " Report",
  "8003": "iel",
  "8004": "uper",
  "8005": " Turkish",
  "8006": "400",
  "8007": " aver",
  "8008": " finger",
  "8009": " Note",
  "8010": " Conference",
  "8011": " tackle",
  "8012": " cha",
  "8013": "burgh",
  "8014": " gonna",
  "8015": " Diego",
  "8016": " Point",
  "8017": " crop",
  "8018": " Centre",
  "8019": " farmers",
  "8020": " Manchester",
  "8021": " nominee",
  "8022": " 41",
  "8023": "53",
  "8024": "aching",
  "8025": " Jason",
  "8026": " barely",
  "8027": "ATO",
  "8028": " structures",
  "8029": " contained",
  "8030": " synt",
  "8031": " Ott",
  "8032": " delivery",
  "8033": " convin",
  "8034": "%,",
  "8035": " processing",
  "8036": " discrimination",
  "8037": " incent",
  "8038": "riers",
  "8039": " Fair",
  "8040": "erved",
  "8041": "RS",
  "8042": " Data",
  "8043": "then",
  "8044": " Arm",
  "8045": "abinet",
  "8046": " intellectual",
  "8047": " Radio",
  "8048": "amsung",
  "8049": " 46",
  "8050": " Bry",
  "8051": " OK",
  "8052": " Field",
  "8053": "Me",
  "8054": " Did",
  "8055": " upset",
  "8056": " Perhaps",
  "8057": " Mir",
  "8058": " Education",
  "8059": "sylvania",
  "8060": "away",
  "8061": "President",
  "8062": " challenging",
  "8063": " proven",
  "8064": " restrictions",
  "8065": "rik",
  "8066": " forever",
  "8067": "ho",
  "8068": "https",
  "8069": "olen",
  "8070": " electronic",
  "8071": " hitting",
  "8072": " Hay",
  "8073": " euro",
  "8074": " unex",
  "8075": " reviews",
  "8076": " Fed",
  "8077": " Christians",
  "8078": " 43",
  "8079": " NC",
  "8080": " convicted",
  "8081": "Star",
  "8082": " illness",
  "8083": " smooth",
  "8084": "page",
  "8085": "Dav",
  "8086": " Hor",
  "8087": " retired",
  "8088": " indicated",
  "8089": "usive",
  "8090": " producing",
  "8091": " About",
  "8092": " Harry",
  "8093": " rapidly",
  "8094": " rose",
  "8095": " hide",
  "8096": "fr",
  "8097": " corporations",
  "8098": " ocean",
  "8099": "iy",
  "8100": " Rus",
  "8101": "aying",
  "8102": "owing",
  "8103": " listening",
  "8104": " Reuters",
  "8105": " UFC",
  "8106": " Sat",
  "8107": " technique",
  "8108": " mo",
  "8109": "yard",
  "8110": "sels",
  "8111": " loyal",
  "8112": " Nic",
  "8113": "lessly",
  "8114": " robot",
  "8115": " climb",
  "8116": " notion",
  "8117": " begun",
  "8118": "87",
  "8119": " util",
  "8120": " recognition",
  "8121": " ren",
  "8122": "ouver",
  "8123": "engers",
  "8124": " perpet",
  "8125": " association",
  "8126": " milk",
  "8127": "inf",
  "8128": " asks",
  "8129": " websites",
  "8130": " description",
  "8131": " Pack",
  "8132": " tickets",
  "8133": " Pen",
  "8134": "achus",
  "8135": " flash",
  "8136": " bra",
  "8137": " suggesting",
  "8138": "enny",
  "8139": " Judge",
  "8140": " exclusive",
  "8141": " reaching",
  "8142": " prepare",
  "8143": "iti",
  "8144": " Kansas",
  "8145": "Who",
  "8146": "ione",
  "8147": " bail",
  "8148": " frag",
  "8149": " progressive",
  "8150": " burd",
  "8151": " exceed",
  "8152": " equally",
  "8153": " Hard",
  "8154": " hardly",
  "8155": " widespread",
  "8156": " ABC",
  "8157": " campaigns",
  "8158": " Mayor",
  "8159": " contribute",
  "8160": "udes",
  "8161": "ologists",
  "8162": " branch",
  "8163": "Look",
  "8164": " Rose",
  "8165": " grass",
  "8166": " initiative",
  "8167": " Market",
  "8168": " ethnic",
  "8169": " external",
  "8170": "ikes",
  "8171": " Circ",
  "8172": "uma",
  "8173": "rient",
  "8174": " sensitive",
  "8175": " practical",
  "8176": "usted",
  "8177": "elf",
  "8178": " unclear",
  "8179": " normally",
  "8180": "Ref",
  "8181": " representative",
  "8182": "pat",
  "8183": "ls",
  "8184": "89",
  "8185": "thon",
  "8186": " welf",
  "8187": " Full",
  "8188": " reducing",
  "8189": "appy",
  "8190": " friendly",
  "8191": "bec",
  "8192": " carefully",
  "8193": " Arabia",
  "8194": " Ref",
  "8195": "lad",
  "8196": "ester",
  "8197": " Ly",
  "8198": "PM",
  "8199": " Luc",
  "8200": " racist",
  "8201": " invent",
  "8202": "rical",
  "8203": "ouch",
  "8204": "PG",
  "8205": " CO",
  "8206": " Next",
  "8207": " respectively",
  "8208": "senal",
  "8209": "rator",
  "8210": " tail",
  "8211": "imm",
  "8212": " McCain",
  "8213": " Bernie",
  "8214": "ancouver",
  "8215": " overwhelming",
  "8216": " viewers",
  "8217": " Beach",
  "8218": "stract",
  "8219": " welfare",
  "8220": "arrass",
  "8221": " Further",
  "8222": " convinced",
  "8223": "UN",
  "8224": " smoke",
  "8225": "umes",
  "8226": " collapse",
  "8227": " involvement",
  "8228": " Lind",
  "8229": " thrown",
  "8230": "pload",
  "8231": " connections",
  "8232": "heast",
  "8233": " terrorists",
  "8234": " Battle",
  "8235": " strategic",
  "8236": " hook",
  "8237": " 00",
  "8238": " Latin",
  "8239": " recover",
  "8240": "omething",
  "8241": "igrant",
  "8242": " Ont",
  "8243": " wine",
  "8244": "Mc",
  "8245": "inois",
  "8246": " Music",
  "8247": "rolled",
  "8248": " minds",
  "8249": " vital",
  "8250": " settlement",
  "8251": " statistics",
  "8252": " lists",
  "8253": " vary",
  "8254": " Sir",
  "8255": " featuring",
  "8256": " ESPN",
  "8257": "ecut",
  "8258": " Dig",
  "8259": "achusetts",
  "8260": " behaviour",
  "8261": " independence",
  "8262": "worth",
  "8263": " fantasy",
  "8264": " devast",
  "8265": "nedy",
  "8266": "core",
  "8267": "uties",
  "8268": " invited",
  "8269": " complaints",
  "8270": " joining",
  "8271": " scores",
  "8272": "dem",
  "8273": " fiscal",
  "8274": " deeper",
  "8275": "abil",
  "8276": " Pennsylvania",
  "8277": "ifest",
  "8278": " steal",
  "8279": " anger",
  "8280": " deputy",
  "8281": " elig",
  "8282": " wars",
  "8283": " Square",
  "8284": " Tenn",
  "8285": " investigate",
  "8286": " Town",
  "8287": " sugar",
  "8288": " constitutional",
  "8289": " III",
  "8290": " scholars",
  "8291": " Pit",
  "8292": " iOS",
  "8293": " anybody",
  "8294": " subjects",
  "8295": " AND",
  "8296": " array",
  "8297": " alien",
  "8298": "FA",
  "8299": " Ult",
  "8300": " Gov",
  "8301": " lobby",
  "8302": " ownership",
  "8303": " framework",
  "8304": " unemployment",
  "8305": " Division",
  "8306": " transgender",
  "8307": "bn",
  "8308": " improvements",
  "8309": " SS",
  "8310": " menu",
  "8311": " peak",
  "8312": "Back",
  "8313": " screens",
  "8314": "ihad",
  "8315": " inject",
  "8316": " luck",
  "8317": "iversary",
  "8318": " define",
  "8319": " tasks",
  "8320": " Xbox",
  "8321": " democratic",
  "8322": " scandal",
  "8323": "icking",
  "8324": " jury",
  "8325": "acon",
  "8326": " Anton",
  "8327": "Che",
  "8328": " Ministry",
  "8329": " cos",
  "8330": " Es",
  "8331": " comprehens",
  "8332": "osit",
  "8333": " Kat",
  "8334": " remem",
  "8335": " discovery",
  "8336": "unior",
  "8337": " register",
  "8338": " casual",
  "8339": " citizen",
  "8340": "RI",
  "8341": " fab",
  "8342": "Under",
  "8343": "een",
  "8344": " roads",
  "8345": " disagree",
  "8346": " failing",
  "8347": " Never",
  "8348": " Little",
  "8349": " Jay",
  "8350": " dynamic",
  "8351": " serves",
  "8352": " Cameron",
  "8353": " Brother",
  "8354": " Mah",
  "8355": " testim",
  "8356": " gathered",
  "8357": " Stone",
  "8358": " Information",
  "8359": "Sm",
  "8360": " soph",
  "8361": "oding",
  "8362": " implemented",
  "8363": " controversy",
  "8364": " collective",
  "8365": " trained",
  "8366": "anna",
  "8367": " NSA",
  "8368": " neighbour",
  "8369": " fears",
  "8370": "leveland",
  "8371": " samples",
  "8372": " fiction",
  "8373": " prosec",
  "8374": "agg",
  "8375": " estimate",
  "8376": " Community",
  "8377": "69",
  "8378": " Ice",
  "8379": " Medical",
  "8380": " 1997",
  "8381": " Philipp",
  "8382": " referring",
  "8383": " tip",
  "8384": " captain",
  "8385": "Will",
  "8386": " 1996",
  "8387": " spaces",
  "8388": "cific",
  "8389": " Walker",
  "8390": " versus",
  "8391": " legs",
  "8392": " Santa",
  "8393": "'.",
  "8394": " temporary",
  "8395": "PC",
  "8396": " noise",
  "8397": " HD",
  "8398": " overt",
  "8399": " incorpor",
  "8400": " tone",
  "8401": " visitors",
  "8402": " reven",
  "8403": " civilians",
  "8404": " wages",
  "8405": " hypot",
  "8406": " sin",
  "8407": " remarks",
  "8408": " awareness",
  "8409": " ON",
  "8410": " Spring",
  "8411": " recommended",
  "8412": " stupid",
  "8413": " Allen",
  "8414": " heading",
  "8415": " handful",
  "8416": " regulation",
  "8417": "icket",
  "8418": " Action",
  "8419": " Core",
  "8420": " platforms",
  "8421": " accus",
  "8422": " Anthony",
  "8423": " affairs",
  "8424": " touchdown",
  "8425": " rural",
  "8426": " attacking",
  "8427": "gener",
  "8428": " extend",
  "8429": " ultimate",
  "8430": " attached",
  "8431": " Vegas",
  "8432": " discussions",
  "8433": " Ren",
  "8434": " horse",
  "8435": " Brew",
  "8436": "mad",
  "8437": " reprodu",
  "8438": " genetic",
  "8439": " expanded",
  "8440": " attempting",
  "8441": "phones",
  "8442": " Matthew",
  "8443": " races",
  "8444": "including",
  "8445": "iry",
  "8446": " Queen",
  "8447": " raw",
  "8448": " ignore",
  "8449": " Columbia",
  "8450": "serv",
  "8451": " Pent",
  "8452": " Guardian",
  "8453": "hour",
  "8454": " Cook",
  "8455": " iP",
  "8456": "itionally",
  "8457": " gear",
  "8458": " symptoms",
  "8459": " Patrick",
  "8460": " suffer",
  "8461": " settings",
  "8462": " Make",
  "8463": "ââââ",
  "8464": "alling",
  "8465": " salary",
  "8466": "case",
  "8467": " licens",
  "8468": "mary",
  "8469": "GO",
  "8470": " tweeted",
  "8471": "angel",
  "8472": " publication",
  "8473": " brill",
  "8474": " factory",
  "8475": " suspected",
  "8476": " purchased",
  "8477": "aret",
  "8478": " intervention",
  "8479": " eastern",
  "8480": " holiday",
  "8481": "type",
  "8482": "2014",
  "8483": " theat",
  "8484": "esh",
  "8485": "About",
  "8486": " displ",
  "8487": " ranked",
  "8488": " Budd",
  "8489": " neck",
  "8490": " Austin",
  "8491": " Conservative",
  "8492": " Museum",
  "8493": "ective",
  "8494": " Roy",
  "8495": "\")",
  "8496": " cro",
  "8497": " enormous",
  "8498": "Sen",
  "8499": "####",
  "8500": "intendo",
  "8501": " cogn",
  "8502": " logic",
  "8503": "ultural",
  "8504": "ictions",
  "8505": " improvement",
  "8506": " API",
  "8507": " viewed",
  "8508": " ingred",
  "8509": " entertainment",
  "8510": "Ass",
  "8511": " legitimate",
  "8512": " Professor",
  "8513": "ommod",
  "8514": " presum",
  "8515": " Albert",
  "8516": " Massachusetts",
  "8517": " Ball",
  "8518": " 2019",
  "8519": " www",
  "8520": "News",
  "8521": " actors",
  "8522": " substantial",
  "8523": " humanity",
  "8524": " involves",
  "8525": " resource",
  "8526": "arms",
  "8527": " brothers",
  "8528": " liquid",
  "8529": " rational",
  "8530": " seemingly",
  "8531": " sorry",
  "8532": " layer",
  "8533": " loans",
  "8534": " rook",
  "8535": " investigating",
  "8536": " absence",
  "8537": " providers",
  "8538": " tomorrow",
  "8539": " fallen",
  "8540": " bureau",
  "8541": " grounds",
  "8542": " coaches",
  "8543": " stake",
  "8544": " resign",
  "8545": " outs",
  "8546": "rec",
  "8547": " advocates",
  "8548": " â¬",
  "8549": "RC",
  "8550": " investigators",
  "8551": " conspiracy",
  "8552": "Where",
  "8553": " medicine",
  "8554": " dramatic",
  "8555": " fulf",
  "8556": " monitor",
  "8557": " Chair",
  "8558": "EST",
  "8559": "repre",
  "8560": " overs",
  "8561": " chapter",
  "8562": " Season",
  "8563": " coc",
  "8564": "oval",
  "8565": "GE",
  "8566": "lah",
  "8567": " Ho",
  "8568": ".-",
  "8569": " activist",
  "8570": "plete",
  "8571": "ped",
  "8572": " boat",
  "8573": " Check",
  "8574": "aka",
  "8575": " Control",
  "8576": " jur",
  "8577": " suspended",
  "8578": " papers",
  "8579": "Script",
  "8580": " Greece",
  "8581": " opinions",
  "8582": " Such",
  "8583": " Ross",
  "8584": " missile",
  "8585": " Golden",
  "8586": " celeb",
  "8587": " Revolution",
  "8588": "2016",
  "8589": " stayed",
  "8590": " covers",
  "8591": " Ra",
  "8592": " Head",
  "8593": "iverpool",
  "8594": " diversity",
  "8595": "otype",
  "8596": " bars",
  "8597": "Part",
  "8598": " gam",
  "8599": "Russ",
  "8600": " embarrass",
  "8601": "xit",
  "8602": " offices",
  "8603": " Acc",
  "8604": "rets",
  "8605": "ourse",
  "8606": "claim",
  "8607": " Pot",
  "8608": "hot",
  "8609": " Iranian",
  "8610": "ammed",
  "8611": " disrupt",
  "8612": "cover",
  "8613": " WW",
  "8614": " preced",
  "8615": " poly",
  "8616": " forest",
  "8617": "wered",
  "8618": " careful",
  "8619": "mat",
  "8620": "reprene",
  "8621": "vard",
  "8622": " amid",
  "8623": " History",
  "8624": "79",
  "8625": " Hospital",
  "8626": "isting",
  "8627": " Ale",
  "8628": " authent",
  "8629": "quest",
  "8630": " Illinois",
  "8631": " CBS",
  "8632": " Sony",
  "8633": "uction",
  "8634": " ham",
  "8635": "geon",
  "8636": "Related",
  "8637": "dit",
  "8638": " Ap",
  "8639": "74",
  "8640": "72",
  "8641": "rine",
  "8642": " transportation",
  "8643": " Vancouver",
  "8644": " Gaza",
  "8645": " handed",
  "8646": " protocol",
  "8647": " consistently",
  "8648": " mountain",
  "8649": " 52",
  "8650": " reads",
  "8651": " Stat",
  "8652": " pref",
  "8653": " clothes",
  "8654": " attitude",
  "8655": "iability",
  "8656": " Share",
  "8657": " Kennedy",
  "8658": " porn",
  "8659": " princip",
  "8660": " Freedom",
  "8661": " depends",
  "8662": " mining",
  "8663": " petition",
  "8664": " noting",
  "8665": " warrant",
  "8666": "des",
  "8667": " conce",
  "8668": " colors",
  "8669": " lowest",
  "8670": " Anderson",
  "8671": " Tri",
  "8672": " addressed",
  "8673": " Family",
  "8674": "bi",
  "8675": "unes",
  "8676": " entr",
  "8677": "Ste",
  "8678": " Stadium",
  "8679": "xx",
  "8680": " throwing",
  "8681": " je",
  "8682": " fruit",
  "8683": " virtually",
  "8684": "!)",
  "8685": " stone",
  "8686": " foss",
  "8687": " Mean",
  "8688": " guarantee",
  "8689": " referend",
  "8690": "Both",
  "8691": "??",
  "8692": " speaks",
  "8693": " Baltimore",
  "8694": "inch",
  "8695": " steel",
  "8696": " closing",
  "8697": " reader",
  "8698": "dri",
  "8699": "FF",
  "8700": " buff",
  "8701": " personality",
  "8702": " appreciate",
  "8703": " Cre",
  "8704": " Iraqi",
  "8705": " surf",
  "8706": " Environment",
  "8707": " nerv",
  "8708": "iences",
  "8709": "maker",
  "8710": " km",
  "8711": "keep",
  "8712": " handling",
  "8713": " profits",
  "8714": "ordon",
  "8715": " grav",
  "8716": " marks",
  "8717": "low",
  "8718": " tries",
  "8719": " Broad",
  "8720": " contributions",
  "8721": " Engine",
  "8722": "ropri",
  "8723": "zed",
  "8724": " spiritual",
  "8725": " conversations",
  "8726": " fantastic",
  "8727": " Tro",
  "8728": " lands",
  "8729": " console",
  "8730": "ila",
  "8731": " horror",
  "8732": "ppers",
  "8733": "\".[",
  "8734": "icity",
  "8735": " gains",
  "8736": " covering",
  "8737": " tea",
  "8738": "ivals",
  "8739": " Harris",
  "8740": "Her",
  "8741": " hint",
  "8742": " astron",
  "8743": "aval",
  "8744": " shoulder",
  "8745": "scale",
  "8746": " wrest",
  "8747": " guest",
  "8748": " Ext",
  "8749": " accommod",
  "8750": "uted",
  "8751": "uits",
  "8752": " depression",
  "8753": " CA",
  "8754": " _",
  "8755": " Lewis",
  "8756": " lucky",
  "8757": " Bang",
  "8758": " encouraged",
  "8759": "flix",
  "8760": "amac",
  "8761": " judges",
  "8762": " incidents",
  "8763": " Cleveland",
  "8764": " drew",
  "8765": " subsequent",
  "8766": "ira",
  "8767": " spoken",
  "8768": " Howard",
  "8769": "annels",
  "8770": " Bad",
  "8771": " brown",
  "8772": " bacter",
  "8773": "Please",
  "8774": "ixed",
  "8775": " rhet",
  "8776": " ranks",
  "8777": " Getty",
  "8778": " photograp",
  "8779": " inflation",
  "8780": " inner",
  "8781": " Intelligence",
  "8782": " Po",
  "8783": "itting",
  "8784": " Ba",
  "8785": " maps",
  "8786": "abeth",
  "8787": " Patri",
  "8788": "ported",
  "8789": "ijing",
  "8790": "plate",
  "8791": " divided",
  "8792": " 1995",
  "8793": " NATO",
  "8794": "********",
  "8795": " paralle",
  "8796": " drama",
  "8797": " Mexican",
  "8798": " distributed",
  "8799": " gal",
  "8800": " innovation",
  "8801": " swing",
  "8802": "unicip",
  "8803": " cust",
  "8804": " Unfortunately",
  "8805": " premium",
  "8806": " voter",
  "8807": " permit",
  "8808": " revel",
  "8809": " Kong",
  "8810": " trem",
  "8811": " dance",
  "8812": " clim",
  "8813": "pled",
  "8814": " Las",
  "8815": " efficiency",
  "8816": " promises",
  "8817": " Indeed",
  "8818": "Note",
  "8819": "eding",
  "8820": " CH",
  "8821": " Which",
  "8822": " ballot",
  "8823": " 51",
  "8824": "pie",
  "8825": " Adv",
  "8826": " temperatures",
  "8827": " Samsung",
  "8828": " portray",
  "8829": " spokesperson",
  "8830": " locked",
  "8831": " lying",
  "8832": " improving",
  "8833": " threw",
  "8834": " joy",
  "8835": " dump",
  "8836": "Art",
  "8837": " musical",
  "8838": "PP",
  "8839": " mistakes",
  "8840": "dated",
  "8841": " shout",
  "8842": " Start",
  "8843": " homeless",
  "8844": "conf",
  "8845": " replacement",
  "8846": "eries",
  "8847": " comedy",
  "8848": " checks",
  "8849": " Without",
  "8850": " Moon",
  "8851": " instrument",
  "8852": "ounce",
  "8853": " Connect",
  "8854": " acknowledged",
  "8855": " barrel",
  "8856": " responses",
  "8857": " protecting",
  "8858": "backs",
  "8859": " Det",
  "8860": "Â",
  "8861": " silver",
  "8862": " copies",
  "8863": "heim",
  "8864": " les",
  "8865": " AC",
  "8866": " dad",
  "8867": " breaks",
  "8868": " Plus",
  "8869": " Buff",
  "8870": " commonly",
  "8871": " lets",
  "8872": " legacy",
  "8873": "itage",
  "8874": " protein",
  "8875": " mathem",
  "8876": " joke",
  "8877": "amacare",
  "8878": "erted",
  "8879": "hop",
  "8880": "arre",
  "8881": " passengers",
  "8882": "2015",
  "8883": " yellow",
  "8884": " Marvel",
  "8885": " naturally",
  "8886": "Your",
  "8887": " Scient",
  "8888": " nomination",
  "8889": "Source",
  "8890": " measured",
  "8891": "aping",
  "8892": "oded",
  "8893": "alia",
  "8894": " Use",
  "8895": " abandoned",
  "8896": " mad",
  "8897": " Prince",
  "8898": " studied",
  "8899": "800",
  "8900": " Football",
  "8901": "helsea",
  "8902": " diverse",
  "8903": "argo",
  "8904": " acquired",
  "8905": "ieties",
  "8906": " Lyn",
  "8907": "Cons",
  "8908": "esty",
  "8909": " soil",
  "8910": " Marsh",
  "8911": " demonstrated",
  "8912": " blast",
  "8913": " rear",
  "8914": " funded",
  "8915": " headquarters",
  "8916": "hesis",
  "8917": "yo",
  "8918": " stolen",
  "8919": " scan",
  "8920": " counts",
  "8921": " tape",
  "8922": " partnership",
  "8923": " midfield",
  "8924": " NOT",
  "8925": " (â",
  "8926": " upgrade",
  "8927": " Cost",
  "8928": " Atlantic",
  "8929": "yer",
  "8930": " march",
  "8931": " ordinary",
  "8932": " Aud",
  "8933": " Nev",
  "8934": " rom",
  "8935": "aware",
  "8936": " literature",
  "8937": " plain",
  "8938": " stages",
  "8939": " â¢",
  "8940": " assert",
  "8941": " 1994",
  "8942": "high",
  "8943": " AI",
  "8944": " helpful",
  "8945": " arrive",
  "8946": " exit",
  "8947": " scope",
  "8948": " falls",
  "8949": "63",
  "8950": "dog",
  "8951": " ignored",
  "8952": "BM",
  "8953": " twenty",
  "8954": "eters",
  "8955": " Master",
  "8956": " clock",
  "8957": " compe",
  "8958": "inction",
  "8959": " virus",
  "8960": " Trib",
  "8961": " referendum",
  "8962": " inequ",
  "8963": " unions",
  "8964": " Does",
  "8965": "assador",
  "8966": " Gun",
  "8967": " conservatives",
  "8968": " rif",
  "8969": " grid",
  "8970": " symp",
  "8971": " festival",
  "8972": " fro",
  "8973": " shopping",
  "8974": " waters",
  "8975": " Pop",
  "8976": " capabilities",
  "8977": " Bron",
  "8978": " ax",
  "8979": "lahoma",
  "8980": " usage",
  "8981": " Hind",
  "8982": "iate",
  "8983": "zing",
  "8984": " Empire",
  "8985": "aeda",
  "8986": " Abb",
  "8987": "ington",
  "8988": " Indiana",
  "8989": "iley",
  "8990": " transactions",
  "8991": "erg",
  "8992": " hoped",
  "8993": " distract",
  "8994": " Ast",
  "8995": " guitar",
  "8996": "VE",
  "8997": " Eag",
  "8998": " sty",
  "8999": " ramp",
  "9000": " assessment",
  "9001": "ctic",
  "9002": " universities",
  "9003": " Dave",
  "9004": " moon",
  "9005": " monitoring",
  "9006": "ormal",
  "9007": "acket",
  "9008": "bridge",
  "9009": " representing",
  "9010": "Facebook",
  "9011": " ratio",
  "9012": " Death",
  "9013": "encing",
  "9014": "ught",
  "9015": "62",
  "9016": " Prov",
  "9017": " conventional",
  "9018": "comes",
  "9019": "UST",
  "9020": "orge",
  "9021": " trave",
  "9022": " Set",
  "9023": " tracking",
  "9024": "door",
  "9025": "ntil",
  "9026": " Sometimes",
  "9027": "61",
  "9028": "only",
  "9029": "shire",
  "9030": " hung",
  "9031": " Sus",
  "9032": " reliable",
  "9033": " tie",
  "9034": " proposals",
  "9035": " skept",
  "9036": " Hell",
  "9037": " replied",
  "9038": " Ros",
  "9039": "fund",
  "9040": "uh",
  "9041": " criticized",
  "9042": " appearances",
  "9043": "rimin",
  "9044": " Ha",
  "9045": "ecutive",
  "9046": "ela",
  "9047": " racism",
  "9048": " insisted",
  "9049": "organ",
  "9050": " introduction",
  "9051": " 2020",
  "9052": " appointed",
  "9053": "dney",
  "9054": " Bureau",
  "9055": "olph",
  "9056": "agic",
  "9057": " Pass",
  "9058": "cut",
  "9059": "Ke",
  "9060": " Line",
  "9061": " beauty",
  "9062": " concrete",
  "9063": " receiver",
  "9064": " supplies",
  "9065": " performing",
  "9066": "made",
  "9067": "ji",
  "9068": " bub",
  "9069": " exch",
  "9070": "rite",
  "9071": " visiting",
  "9072": " Technology",
  "9073": " Denver",
  "9074": "ocument",
  "9075": "EE",
  "9076": "omes",
  "9077": " Capt",
  "9078": "theless",
  "9079": "RL",
  "9080": " letting",
  "9081": "AND",
  "9082": " deficit",
  "9083": " classified",
  "9084": " Galaxy",
  "9085": " auto",
  "9086": "HT",
  "9087": " render",
  "9088": " absor",
  "9089": " Orig",
  "9090": " swim",
  "9091": " accomplish",
  "9092": " programme",
  "9093": " presidency",
  "9094": "crib",
  "9095": " blocked",
  "9096": " Sweden",
  "9097": "archy",
  "9098": " dust",
  "9099": " Utah",
  "9100": " drove",
  "9101": " landscape",
  "9102": " cance",
  "9103": " Portland",
  "9104": "plus",
  "9105": " dismissed",
  "9106": " LA",
  "9107": " hyper",
  "9108": " abroad",
  "9109": " bonus",
  "9110": " Jam",
  "9111": " Tour",
  "9112": "har",
  "9113": " sequence",
  "9114": " predicted",
  "9115": " senator",
  "9116": "Â°",
  "9117": " Age",
  "9118": " domain",
  "9119": " Code",
  "9120": " ec",
  "9121": " museum",
  "9122": " warn",
  "9123": " Associated",
  "9124": "acco",
  "9125": " persons",
  "9126": "NS",
  "9127": " dub",
  "9128": "iano",
  "9129": "aga",
  "9130": " requested",
  "9131": " trigger",
  "9132": " Ontario",
  "9133": " hockey",
  "9134": " Corpor",
  "9135": " artific",
  "9136": " dates",
  "9137": " testimony",
  "9138": " centers",
  "9139": "Ð»",
  "9140": " rocket",
  "9141": "irts",
  "9142": " ves",
  "9143": " transit",
  "9144": " congressional",
  "9145": " entitled",
  "9146": "ultane",
  "9147": " spokeswoman",
  "9148": " Front",
  "9149": " Nintendo",
  "9150": " Alexander",
  "9151": " rescue",
  "9152": " Cooper",
  "9153": "mony",
  "9154": " assign",
  "9155": " Bon",
  "9156": " equality",
  "9157": " patch",
  "9158": " urged",
  "9159": " bread",
  "9160": " Olympic",
  "9161": " documentary",
  "9162": " veterans",
  "9163": " clar",
  "9164": "fol",
  "9165": "93",
  "9166": "ais",
  "9167": "king",
  "9168": " â",
  "9169": "pton",
  "9170": " recall",
  "9171": " populations",
  "9172": "94",
  "9173": " Low",
  "9174": " breath",
  "9175": "Still",
  "9176": "92",
  "9177": "rooms",
  "9178": " whenever",
  "9179": " violation",
  "9180": " tactics",
  "9181": " wider",
  "9182": "71",
  "9183": "ounding",
  "9184": " Kar",
  "9185": " targeting",
  "9186": "Yet",
  "9187": "through",
  "9188": " pursue",
  "9189": " salt",
  "9190": "\">",
  "9191": "Are",
  "9192": "izabeth",
  "9193": " firing",
  "9194": "don",
  "9195": " Mill",
  "9196": " acid",
  "9197": " mole",
  "9198": "inating",
  "9199": " restaurants",
  "9200": " compare",
  "9201": "73",
  "9202": "fare",
  "9203": "Comp",
  "9204": "orous",
  "9205": "ennis",
  "9206": " wedd",
  "9207": " employed",
  "9208": " Roberts",
  "9209": " contrad",
  "9210": " Bible",
  "9211": " politically",
  "9212": " phrase",
  "9213": " satellite",
  "9214": " Cro",
  "9215": " survival",
  "9216": " retirement",
  "9217": " banking",
  "9218": " Form",
  "9219": " brilliant",
  "9220": "isons",
  "9221": " Girl",
  "9222": "atar",
  "9223": " channels",
  "9224": " servers",
  "9225": " Beijing",
  "9226": " soccer",
  "9227": "trans",
  "9228": "aver",
  "9229": " Mach",
  "9230": "they",
  "9231": " introduce",
  "9232": " Justin",
  "9233": " experiments",
  "9234": "enez",
  "9235": " prisoners",
  "9236": "rapped",
  "9237": " cig",
  "9238": " WH",
  "9239": "afe",
  "9240": "jud",
  "9241": " fighter",
  "9242": "600",
  "9243": " scientist",
  "9244": "OK",
  "9245": " YOU",
  "9246": "usalem",
  "9247": " List",
  "9248": " submit",
  "9249": " approached",
  "9250": " Award",
  "9251": " monthly",
  "9252": " Liverpool",
  "9253": " designs",
  "9254": " representatives",
  "9255": " titled",
  "9256": "ordinary",
  "9257": " quote",
  "9258": " popularity",
  "9259": "olves",
  "9260": " abilities",
  "9261": "oenix",
  "9262": " cul",
  "9263": " PD",
  "9264": " membership",
  "9265": " investigations",
  "9266": " focusing",
  "9267": "mans",
  "9268": " hosp",
  "9269": " bab",
  "9270": " Bridge",
  "9271": "Though",
  "9272": " Maryland",
  "9273": " saving",
  "9274": "pa",
  "9275": " rush",
  "9276": " Governor",
  "9277": " shadow",
  "9278": "ouri",
  "9279": "bow",
  "9280": " Hur",
  "9281": " Base",
  "9282": " objective",
  "9283": "berry",
  "9284": " Ted",
  "9285": "emed",
  "9286": "erts",
  "9287": "ederation",
  "9288": " mit",
  "9289": " prepar",
  "9290": " tips",
  "9291": " Was",
  "9292": " pipeline",
  "9293": "David",
  "9294": " childhood",
  "9295": "ika",
  "9296": " ratings",
  "9297": " thorough",
  "9298": " entreprene",
  "9299": "enter",
  "9300": " Vill",
  "9301": " Dutch",
  "9302": "was",
  "9303": "break",
  "9304": " actively",
  "9305": " Harvard",
  "9306": " pig",
  "9307": " Som",
  "9308": " demanding",
  "9309": " loose",
  "9310": "asty",
  "9311": " Bra",
  "9312": " unexpected",
  "9313": "CO",
  "9314": " smoking",
  "9315": " smell",
  "9316": " deny",
  "9317": " universal",
  "9318": " forecast",
  "9319": " argues",
  "9320": " phenomenon",
  "9321": " overseas",
  "9322": "mers",
  "9323": "olds",
  "9324": " settled",
  "9325": "walk",
  "9326": " Beck",
  "9327": " generations",
  "9328": " weekly",
  "9329": " chicken",
  "9330": " preparing",
  "9331": " 95",
  "9332": " smartphone",
  "9333": " producers",
  "9334": " butt",
  "9335": " PA",
  "9336": " legislative",
  "9337": " anxiety",
  "9338": " disturb",
  "9339": " Have",
  "9340": " innocent",
  "9341": "minute",
  "9342": " Click",
  "9343": " mortg",
  "9344": " celebrate",
  "9345": "Dem",
  "9346": " Ur",
  "9347": "iki",
  "9348": " provision",
  "9349": " DO",
  "9350": " keys",
  "9351": "ded",
  "9352": " shame",
  "9353": " arguing",
  "9354": " Design",
  "9355": "held",
  "9356": " questioned",
  "9357": " forcing",
  "9358": " Cow",
  "9359": " Hop",
  "9360": "ompson",
  "9361": "agh",
  "9362": "â",
  "9363": " broader",
  "9364": " encounter",
  "9365": "SL",
  "9366": " flags",
  "9367": " fool",
  "9368": " mac",
  "9369": " 53",
  "9370": " deadly",
  "9371": " fur",
  "9372": "84",
  "9373": " reverse",
  "9374": "oz",
  "9375": " weigh",
  "9376": " Edward",
  "9377": " Among",
  "9378": " tens",
  "9379": " ~",
  "9380": " mos",
  "9381": " wealthy",
  "9382": " Obamacare",
  "9383": " unpre",
  "9384": " maintained",
  "9385": " surely",
  "9386": " shield",
  "9387": " Prop",
  "9388": "ocolate",
  "9389": "oret",
  "9390": " secondary",
  "9391": "isa",
  "9392": "aved",
  "9393": "Sim",
  "9394": " savings",
  "9395": "irlf",
  "9396": " roof",
  "9397": " stability",
  "9398": " civilian",
  "9399": " tab",
  "9400": "elson",
  "9401": "Ä",
  "9402": " Carter",
  "9403": " reveals",
  "9404": "mind",
  "9405": " mini",
  "9406": " alarm",
  "9407": " anniversary",
  "9408": " sorts",
  "9409": "ois",
  "9410": " Ak",
  "9411": "vernment",
  "9412": "El",
  "9413": " tonight",
  "9414": " releases",
  "9415": " Hon",
  "9416": " rooms",
  "9417": "irlfriend",
  "9418": "isk",
  "9419": " Gulf",
  "9420": " outrage",
  "9421": " prosecutors",
  "9422": " Left",
  "9423": " disorder",
  "9424": "inals",
  "9425": " exha",
  "9426": "orious",
  "9427": " shr",
  "9428": " relax",
  "9429": " windows",
  "9430": " threatening",
  "9431": " differently",
  "9432": " harassment",
  "9433": " quoted",
  "9434": " healthcare",
  "9435": " submitted",
  "9436": " arbit",
  "9437": " lunch",
  "9438": "step",
  "9439": "itter",
  "9440": " Run",
  "9441": " reforms",
  "9442": " torture",
  "9443": "rection",
  "9444": " fate",
  "9445": " stored",
  "9446": " okay",
  "9447": " Belg",
  "9448": " propaganda",
  "9449": " spots",
  "9450": " instructions",
  "9451": " Vietnam",
  "9452": " sevent",
  "9453": " rounds",
  "9454": " odds",
  "9455": " 1992",
  "9456": "aa",
  "9457": " aer",
  "9458": "html",
  "9459": "tenance",
  "9460": " errors",
  "9461": "ested",
  "9462": " Oklahoma",
  "9463": " hydro",
  "9464": "icism",
  "9465": "GA",
  "9466": " delic",
  "9467": "ailed",
  "9468": " Liberal",
  "9469": " silence",
  "9470": " Graham",
  "9471": "acts",
  "9472": " Warren",
  "9473": " graduate",
  "9474": " Sab",
  "9475": " affordable",
  "9476": " circle",
  "9477": "sect",
  "9478": " Bloom",
  "9479": " cooperation",
  "9480": " picks",
  "9481": " sear",
  "9482": "itary",
  "9483": " Sarah",
  "9484": " Fall",
  "9485": "orship",
  "9486": " Expl",
  "9487": " striking",
  "9488": " puzz",
  "9489": " persu",
  "9490": " streaming",
  "9491": " comprehensive",
  "9492": "race",
  "9493": " importantly",
  "9494": " cow",
  "9495": " possess",
  "9496": "Watch",
  "9497": " fing",
  "9498": " execution",
  "9499": " Ruby",
  "9500": "lined",
  "9501": "rows",
  "9502": " intim",
  "9503": " struggled",
  "9504": " Person",
  "9505": " assass",
  "9506": " Silver",
  "9507": " Leader",
  "9508": "uten",
  "9509": "ahu",
  "9510": " gent",
  "9511": "Ty",
  "9512": " Price",
  "9513": "Reuters",
  "9514": "ishop",
  "9515": " deserve",
  "9516": " Jerusalem",
  "9517": " landing",
  "9518": " calm",
  "9519": " alter",
  "9520": " ceremony",
  "9521": " assumed",
  "9522": " demonstrate",
  "9523": " difficulty",
  "9524": "83",
  "9525": " ages",
  "9526": " pron",
  "9527": " dying",
  "9528": " hal",
  "9529": " distingu",
  "9530": "asury",
  "9531": " stepped",
  "9532": "ethe",
  "9533": " borders",
  "9534": " chest",
  "9535": " Wolf",
  "9536": " Lt",
  "9537": " adventure",
  "9538": " pointing",
  "9539": "ova",
  "9540": " waves",
  "9541": " kilomet",
  "9542": "essee",
  "9543": "ierce",
  "9544": " Netflix",
  "9545": "atern",
  "9546": " autonom",
  "9547": "eals",
  "9548": " precisely",
  "9549": " architecture",
  "9550": " greatly",
  "9551": " Deb",
  "9552": " promising",
  "9553": " consent",
  "9554": "bury",
  "9555": " consideration",
  "9556": " Ten",
  "9557": " drives",
  "9558": " dialogue",
  "9559": " Main",
  "9560": " tremend",
  "9561": " Bud",
  "9562": "asant",
  "9563": " newsletter",
  "9564": " rookie",
  "9565": " awarded",
  "9566": " Meanwhile",
  "9567": "after",
  "9568": " repeat",
  "9569": " Story",
  "9570": " contribution",
  "9571": " Tele",
  "9572": " burning",
  "9573": "iev",
  "9574": "party",
  "9575": " simultane",
  "9576": " Scottish",
  "9577": " Vice",
  "9578": " donations",
  "9579": " Indust",
  "9580": "akh",
  "9581": " interf",
  "9582": "itol",
  "9583": " Magic",
  "9584": " voices",
  "9585": " analyst",
  "9586": " Bruce",
  "9587": " Tech",
  "9588": "ceptions",
  "9589": " gif",
  "9590": " frequency",
  "9591": " Common",
  "9592": " procedure",
  "9593": " wanting",
  "9594": " Pres",
  "9595": " executives",
  "9596": " playoffs",
  "9597": "lee",
  "9598": "oice",
  "9599": " staying",
  "9600": "apolis",
  "9601": " birds",
  "9602": " bias",
  "9603": "VD",
  "9604": " Hong",
  "9605": " Az",
  "9606": "izer",
  "9607": " inches",
  "9608": " trillion",
  "9609": "omy",
  "9610": "holders",
  "9611": " highlights",
  "9612": " semi",
  "9613": " remarkable",
  "9614": " whereas",
  "9615": "EX",
  "9616": "ributes",
  "9617": " Palestinians",
  "9618": " knee",
  "9619": "open",
  "9620": " Jonathan",
  "9621": " ans",
  "9622": "raig",
  "9623": " implications",
  "9624": "scribe",
  "9625": " formation",
  "9626": " superior",
  "9627": " strategies",
  "9628": "itual",
  "9629": " Berlin",
  "9630": "Step",
  "9631": " Link",
  "9632": "stal",
  "9633": "div",
  "9634": " Sydney",
  "9635": " MORE",
  "9636": " categories",
  "9637": " Ark",
  "9638": " fet",
  "9639": " followers",
  "9640": " cream",
  "9641": "Story",
  "9642": "portation",
  "9643": "FO",
  "9644": " contacted",
  "9645": "Ms",
  "9646": " judgment",
  "9647": "annon",
  "9648": " smile",
  "9649": " info",
  "9650": " emerging",
  "9651": "igious",
  "9652": "rif",
  "9653": "js",
  "9654": "onder",
  "9655": "omed",
  "9656": "yes",
  "9657": "bered",
  "9658": "vision",
  "9659": " Eff",
  "9660": "vertisements",
  "9661": "iffs",
  "9662": "hatt",
  "9663": " accessible",
  "9664": " crimin",
  "9665": "TP",
  "9666": " physically",
  "9667": " assigned",
  "9668": " 54",
  "9669": " Andre",
  "9670": " guidelines",
  "9671": " defeated",
  "9672": " wounded",
  "9673": " trials",
  "9674": " stem",
  "9675": " managing",
  "9676": " spell",
  "9677": " ministry",
  "9678": " grade",
  "9679": " coinc",
  "9680": " riding",
  "9681": " indicates",
  "9682": " centuries",
  "9683": "Christ",
  "9684": "cest",
  "9685": " Affairs",
  "9686": " opens",
  "9687": "aki",
  "9688": " pharm",
  "9689": "lla",
  "9690": "->",
  "9691": " meaningful",
  "9692": " tiss",
  "9693": "erent",
  "9694": " Mrs",
  "9695": " ease",
  "9696": "child",
  "9697": " margin",
  "9698": " Store",
  "9699": " clothing",
  "9700": " â",
  "9701": " Tes",
  "9702": " Six",
  "9703": " Capital",
  "9704": " participation",
  "9705": "cedented",
  "9706": "Mus",
  "9707": " revers",
  "9708": "aria",
  "9709": " poison",
  "9710": " Brexit",
  "9711": " 120",
  "9712": " Yemen",
  "9713": " lapt",
  "9714": " competing",
  "9715": " memories",
  "9716": " CS",
  "9717": " theories",
  "9718": " recipe",
  "9719": " gross",
  "9720": "umble",
  "9721": "author",
  "9722": "hard",
  "9723": "91",
  "9724": " passage",
  "9725": "sl",
  "9726": " aged",
  "9727": " Credit",
  "9728": " bin",
  "9729": " drone",
  "9730": " blank",
  "9731": " dispute",
  "9732": " damaged",
  "9733": " 1993",
  "9734": "van",
  "9735": " Hamilton",
  "9736": "base",
  "9737": " substance",
  "9738": " hosted",
  "9739": "TER",
  "9740": "Google",
  "9741": " Chelsea",
  "9742": " Lam",
  "9743": " promoting",
  "9744": " facilit",
  "9745": " openly",
  "9746": " Instagram",
  "9747": " 1950",
  "9748": " Vik",
  "9749": "View",
  "9750": " Children",
  "9751": " Crime",
  "9752": " clinical",
  "9753": "Out",
  "9754": " nic",
  "9755": "eremy",
  "9756": " Hold",
  "9757": "bits",
  "9758": " investments",
  "9759": " consensus",
  "9760": "even",
  "9761": "igate",
  "9762": " Leon",
  "9763": "ses",
  "9764": " Fal",
  "9765": " educational",
  "9766": "ito",
  "9767": "const",
  "9768": " dish",
  "9769": " manifest",
  "9770": " custody",
  "9771": "week",
  "9772": "82",
  "9773": " eligible",
  "9774": " Hawai",
  "9775": " legally",
  "9776": " missions",
  "9777": " endorse",
  "9778": " gate",
  "9779": "eria",
  "9780": " memo",
  "9781": " GT",
  "9782": " tables",
  "9783": " Pict",
  "9784": " nin",
  "9785": " studying",
  "9786": "Hz",
  "9787": " ?",
  "9788": " charity",
  "9789": "aration",
  "9790": "adi",
  "9791": " addresses",
  "9792": " inspect",
  "9793": " discount",
  "9794": "rix",
  "9795": "left",
  "9796": " battles",
  "9797": "ALL",
  "9798": " Der",
  "9799": " 250",
  "9800": " Assembly",
  "9801": " athletes",
  "9802": "Pre",
  "9803": " Trade",
  "9804": " fossil",
  "9805": " enthusi",
  "9806": " Management",
  "9807": "iac",
  "9808": " suspects",
  "9809": " tired",
  "9810": " helic",
  "9811": "Act",
  "9812": " counterpart",
  "9813": " na",
  "9814": "achel",
  "9815": " dating",
  "9816": " Eth",
  "9817": " spectrum",
  "9818": " Metro",
  "9819": "ateral",
  "9820": " Station",
  "9821": " Bal",
  "9822": " presentation",
  "9823": " lux",
  "9824": "gered",
  "9825": "arts",
  "9826": " bottle",
  "9827": " tap",
  "9828": "riors",
  "9829": " vig",
  "9830": " fundra",
  "9831": " enhance",
  "9832": "assy",
  "9833": " Sean",
  "9834": " therapy",
  "9835": " Wales",
  "9836": " Exper",
  "9837": " perceived",
  "9838": "market",
  "9839": " Tok",
  "9840": " dominant",
  "9841": "Def",
  "9842": "math",
  "9843": " backing",
  "9844": " Festival",
  "9845": " underlying",
  "9846": " defending",
  "9847": " Through",
  "9848": " racing",
  "9849": " discussing",
  "9850": " burden",
  "9851": " expanding",
  "9852": " muscle",
  "9853": " stops",
  "9854": "uz",
  "9855": " beings",
  "9856": " Marx",
  "9857": " Equ",
  "9858": " transaction",
  "9859": " Uber",
  "9860": " 99",
  "9861": "Cal",
  "9862": " recruit",
  "9863": "itudes",
  "9864": "acher",
  "9865": " Gary",
  "9866": " mood",
  "9867": " picking",
  "9868": "81",
  "9869": "lando",
  "9870": "ylum",
  "9871": "player",
  "9872": " managers",
  "9873": "orable",
  "9874": " gathering",
  "9875": " hopefully",
  "9876": "angle",
  "9877": " Son",
  "9878": "alysis",
  "9879": " Video",
  "9880": "section",
  "9881": " crus",
  "9882": " Libya",
  "9883": " impression",
  "9884": " hip",
  "9885": "olar",
  "9886": "Ã¢",
  "9887": " scrut",
  "9888": " roy",
  "9889": " Tai",
  "9890": "igenous",
  "9891": " institution",
  "9892": " Batman",
  "9893": "}}",
  "9894": " stere",
  "9895": " procedures",
  "9896": "Ã±",
  "9897": " pocket",
  "9898": " creatures",
  "9899": " Boe",
  "9900": " compat",
  "9901": " arrival",
  "9902": "ptions",
  "9903": "sa",
  "9904": "watch",
  "9905": " eager",
  "9906": " pollution",
  "9907": "iture",
  "9908": " kitchen",
  "9909": " foods",
  "9910": "ocial",
  "9911": " recre",
  "9912": " surviv",
  "9913": "roph",
  "9914": " organic",
  "9915": " Pentagon",
  "9916": " Morgan",
  "9917": " shipping",
  "9918": " capitalism",
  "9919": " insult",
  "9920": " timing",
  "9921": "sub",
  "9922": "odox",
  "9923": " requirement",
  "9924": " unfair",
  "9925": "aders",
  "9926": " 56",
  "9927": " mice",
  "9928": " Assad",
  "9929": "Rem",
  "9930": " Represent",
  "9931": " Mess",
  "9932": " MLS",
  "9933": "bing",
  "9934": "atively",
  "9935": " Elizabeth",
  "9936": " Op",
  "9937": " diseases",
  "9938": "Mod",
  "9939": " industries",
  "9940": " Oakland",
  "9941": "dy",
  "9942": " bowl",
  "9943": "oln",
  "9944": " Murray",
  "9945": " Creat",
  "9946": " sed",
  "9947": " helicop",
  "9948": " divor",
  "9949": "agger",
  "9950": " beach",
  "9951": " punishment",
  "9952": "abet",
  "9953": " shell",
  "9954": "***",
  "9955": " fled",
  "9956": " hospitals",
  "9957": "missions",
  "9958": " tons",
  "9959": "AF",
  "9960": " Kick",
  "9961": " seed",
  "9962": "ogy",
  "9963": " Comey",
  "9964": "opyright",
  "9965": " statist",
  "9966": " engineers",
  "9967": " obsc",
  "9968": " hire",
  "9969": "SC",
  "9970": " module",
  "9971": "AY",
  "9972": "amous",
  "9973": " coaching",
  "9974": "oca",
  "9975": " answered",
  "9976": "rac",
  "9977": "Reg",
  "9978": "TR",
  "9979": " graphics",
  "9980": " regulatory",
  "9981": " sovere",
  "9982": " stance",
  "9983": "alties",
  "9984": " bow",
  "9985": " Keep",
  "9986": "Click",
  "9987": " explaining",
  "9988": " rhetoric",
  "9989": " beating",
  "9990": " Friend",
  "9991": " tut",
  "9992": " Email",
  "9993": "rior",
  "9994": " Yeah",
  "9995": "emic",
  "9996": " acknowledge",
  "9997": " Michel",
  "9998": " principal",
  "9999": " Mit",
  "10000": " pulling",
  "10001": "erves",
  "10002": " signature",
  "10003": "brid",
  "10004": "olving",
  "10005": " convince",
  "10006": " Roll",
  "10007": " variable",
  "10008": "cosystem",
  "10009": " pill",
  "10010": " searching",
  "10011": " Ox",
  "10012": " dies",
  "10013": " overcome",
  "10014": " preferred",
  "10015": "duction",
  "10016": " sixth",
  "10017": " adviser",
  "10018": " Tennessee",
  "10019": " trends",
  "10020": " !",
  "10021": " Russell",
  "10022": " (\"",
  "10023": " Thompson",
  "10024": "Ge",
  "10025": " merch",
  "10026": " rebels",
  "10027": " interaction",
  "10028": " periods",
  "10029": " Yan",
  "10030": " psychological",
  "10031": "Mich",
  "10032": " Sure",
  "10033": " Using",
  "10034": " economics",
  "10035": " Charlie",
  "10036": " Bi",
  "10037": " outlets",
  "10038": " Gil",
  "10039": " Intel",
  "10040": " signals",
  "10041": "pg",
  "10042": " echo",
  "10043": " Executive",
  "10044": " Kentucky",
  "10045": " tempor",
  "10046": " billions",
  "10047": " lineup",
  "10048": " math",
  "10049": "2013",
  "10050": " 1991",
  "10051": " setup",
  "10052": " rend",
  "10053": "Finally",
  "10054": "netic",
  "10055": "mic",
  "10056": " eggs",
  "10057": " segment",
  "10058": " arr",
  "10059": " badly",
  "10060": "kee",
  "10061": " Li",
  "10062": "ui",
  "10063": " sentenced",
  "10064": " everyday",
  "10065": " Dragon",
  "10066": " commander",
  "10067": " Holl",
  "10068": " AN",
  "10069": " loves",
  "10070": "unicipal",
  "10071": "ds",
  "10072": " genes",
  "10073": "NBC",
  "10074": " bold",
  "10075": " requiring",
  "10076": " bullet",
  "10077": " invasion",
  "10078": "will",
  "10079": "Comm",
  "10080": " partly",
  "10081": " escal",
  "10082": " instant",
  "10083": " gig",
  "10084": " Jean",
  "10085": "check",
  "10086": " arts",
  "10087": " gene",
  "10088": " removal",
  "10089": " undert",
  "10090": " upload",
  "10091": "liest",
  "10092": " Hart",
  "10093": " topics",
  "10094": " Iron",
  "10095": "enezuel",
  "10096": " inquiry",
  "10097": " amendment",
  "10098": " weakness",
  "10099": " Rather",
  "10100": "news",
  "10101": " concepts",
  "10102": " Ze",
  "10103": " McK",
  "10104": "has",
  "10105": "PL",
  "10106": " shoes",
  "10107": "arted",
  "10108": " Sound",
  "10109": " fabric",
  "10110": "izza",
  "10111": "grade",
  "10112": " Delhi",
  "10113": "Earlier",
  "10114": "tsburgh",
  "10115": " frequent",
  "10116": " sections",
  "10117": " occurs",
  "10118": "oli",
  "10119": " migrants",
  "10120": " compensation",
  "10121": " engineer",
  "10122": "eness",
  "10123": " lad",
  "10124": " Finally",
  "10125": " fo",
  "10126": " attractive",
  "10127": " Box",
  "10128": " unve",
  "10129": "instein",
  "10130": " ).",
  "10131": " citing",
  "10132": " tweets",
  "10133": " utility",
  "10134": "arency",
  "10135": "cor",
  "10136": " posting",
  "10137": " ridiculous",
  "10138": " blockchain",
  "10139": " cler",
  "10140": " Clark",
  "10141": " speaker",
  "10142": "â",
  "10143": " diam",
  "10144": "Ø§",
  "10145": " corrupt",
  "10146": " talented",
  "10147": " lect",
  "10148": " collaps",
  "10149": " mask",
  "10150": "â",
  "10151": "necess",
  "10152": "screen",
  "10153": " notable",
  "10154": " Therefore",
  "10155": " elder",
  "10156": " genre",
  "10157": " deadline",
  "10158": " rolling",
  "10159": " carries",
  "10160": " BM",
  "10161": "gus",
  "10162": "Top",
  "10163": " Final",
  "10164": "via",
  "10165": " ET",
  "10166": "ental",
  "10167": " approaches",
  "10168": " eliminate",
  "10169": " Priv",
  "10170": " analysts",
  "10171": " sits",
  "10172": " cens",
  "10173": "State",
  "10174": " instances",
  "10175": " Simon",
  "10176": " publishing",
  "10177": " unprecedented",
  "10178": " colour",
  "10179": " Ve",
  "10180": " roots",
  "10181": " Phoenix",
  "10182": "VP",
  "10183": " cock",
  "10184": " bene",
  "10185": " Psych",
  "10186": " toxic",
  "10187": " collaboration",
  "10188": " arc",
  "10189": " inequality",
  "10190": " neighbors",
  "10191": " insight",
  "10192": " dramatically",
  "10193": " Harper",
  "10194": " homosexual",
  "10195": " prize",
  "10196": " towns",
  "10197": " extraordinary",
  "10198": " perception",
  "10199": " Gordon",
  "10200": " Whether",
  "10201": " Phill",
  "10202": " parad",
  "10203": "arget",
  "10204": " gest",
  "10205": " maintenance",
  "10206": "owski",
  "10207": "rowing",
  "10208": " Gro",
  "10209": " GO",
  "10210": " cheaper",
  "10211": "isdom",
  "10212": " associate",
  "10213": " coup",
  "10214": "Mark",
  "10215": " Event",
  "10216": " sheet",
  "10217": " Bow",
  "10218": " Below",
  "10219": " Sav",
  "10220": " Captain",
  "10221": "pack",
  "10222": " cognitive",
  "10223": " encouraging",
  "10224": " dreams",
  "10225": " Pers",
  "10226": " seized",
  "10227": " interviewed",
  "10228": " deployed",
  "10229": " violations",
  "10230": " camps",
  "10231": " comics",
  "10232": " constitu",
  "10233": " Reagan",
  "10234": " reserved",
  "10235": " buck",
  "10236": " employers",
  "10237": " aims",
  "10238": "atus",
  "10239": " functional",
  "10240": " mystery",
  "10241": " displayed",
  "10242": "Paul",
  "10243": "iban",
  "10244": " span",
  "10245": " loop",
  "10246": " delight",
  "10247": "apore",
  "10248": "cre",
  "10249": "AB",
  "10250": " traged",
  "10251": " Economic",
  "10252": "ixture",
  "10253": " Sa",
  "10254": " 57",
  "10255": "ricane",
  "10256": " glad",
[...]
